{
    "0": "\u0000",
    "1": "\u0001",
    "2": "\u0002",
    "3": "\u0003",
    "4": "\u0004",
    "5": "\u0005",
    "6": "\u0006",
    "7": "\u0007",
    "8": "\b",
    "9": "\t",
    "10": "\n",
    "11": "\u000b",
    "12": "\f",
    "13": "\r",
    "14": "\u000e",
    "15": "\u000f",
    "16": "\u0010",
    "17": "\u0011",
    "18": "\u0012",
    "19": "\u0013",
    "20": "\u0014",
    "21": "\u0015",
    "22": "\u0016",
    "23": "\u0017",
    "24": "\u0018",
    "25": "\u0019",
    "26": "\u001a",
    "27": "\u001b",
    "28": "\u001c",
    "29": "\u001d",
    "30": "\u001e",
    "31": "\u001f",
    "32": " ",
    "33": "!",
    "34": "\"",
    "35": "#",
    "36": "$",
    "37": "%",
    "38": "&",
    "39": "'",
    "40": "(",
    "41": ")",
    "42": "*",
    "43": "+",
    "44": ",",
    "45": "-",
    "46": ".",
    "47": "/",
    "48": "0",
    "49": "1",
    "50": "2",
    "51": "3",
    "52": "4",
    "53": "5",
    "54": "6",
    "55": "7",
    "56": "8",
    "57": "9",
    "58": ":",
    "59": ";",
    "60": "<",
    "61": "=",
    "62": ">",
    "63": "?",
    "64": "@",
    "65": "A",
    "66": "B",
    "67": "C",
    "68": "D",
    "69": "E",
    "70": "F",
    "71": "G",
    "72": "H",
    "73": "I",
    "74": "J",
    "75": "K",
    "76": "L",
    "77": "M",
    "78": "N",
    "79": "O",
    "80": "P",
    "81": "Q",
    "82": "R",
    "83": "S",
    "84": "T",
    "85": "U",
    "86": "V",
    "87": "W",
    "88": "X",
    "89": "Y",
    "90": "Z",
    "91": "[",
    "92": "\\",
    "93": "]",
    "94": "^",
    "95": "_",
    "96": "`",
    "97": "a",
    "98": "b",
    "99": "c",
    "100": "d",
    "101": "e",
    "102": "f",
    "103": "g",
    "104": "h",
    "105": "i",
    "106": "j",
    "107": "k",
    "108": "l",
    "109": "m",
    "110": "n",
    "111": "o",
    "112": "p",
    "113": "q",
    "114": "r",
    "115": "s",
    "116": "t",
    "117": "u",
    "118": "v",
    "119": "w",
    "120": "x",
    "121": "y",
    "122": "z",
    "123": "{",
    "124": "|",
    "125": "}",
    "126": "~",
    "127": "",
    "128": "�",
    "129": "�",
    "130": "�",
    "131": "�",
    "132": "�",
    "133": "�",
    "134": "�",
    "135": "�",
    "136": "�",
    "137": "�",
    "138": "�",
    "139": "�",
    "140": "�",
    "141": "�",
    "142": "�",
    "143": "�",
    "144": "�",
    "145": "�",
    "146": "�",
    "147": "�",
    "148": "�",
    "149": "�",
    "150": "�",
    "151": "�",
    "152": "�",
    "153": "�",
    "154": "�",
    "155": "�",
    "156": "�",
    "157": "�",
    "158": "�",
    "159": "�",
    "160": "�",
    "161": "�",
    "162": "�",
    "163": "�",
    "164": "�",
    "165": "�",
    "166": "�",
    "167": "�",
    "168": "�",
    "169": "�",
    "170": "�",
    "171": "�",
    "172": "�",
    "173": "�",
    "174": "�",
    "175": "�",
    "176": "�",
    "177": "�",
    "178": "�",
    "179": "�",
    "180": "�",
    "181": "�",
    "182": "�",
    "183": "�",
    "184": "�",
    "185": "�",
    "186": "�",
    "187": "�",
    "188": "�",
    "189": "�",
    "190": "�",
    "191": "�",
    "192": "�",
    "193": "�",
    "194": "�",
    "195": "�",
    "196": "�",
    "197": "�",
    "198": "�",
    "199": "�",
    "200": "�",
    "201": "�",
    "202": "�",
    "203": "�",
    "204": "�",
    "205": "�",
    "206": "�",
    "207": "�",
    "208": "�",
    "209": "�",
    "210": "�",
    "211": "�",
    "212": "�",
    "213": "�",
    "214": "�",
    "215": "�",
    "216": "�",
    "217": "�",
    "218": "�",
    "219": "�",
    "220": "�",
    "221": "�",
    "222": "�",
    "223": "�",
    "224": "�",
    "225": "�",
    "226": "�",
    "227": "�",
    "228": "�",
    "229": "�",
    "230": "�",
    "231": "�",
    "232": "�",
    "233": "�",
    "234": "�",
    "235": "�",
    "236": "�",
    "237": "�",
    "238": "�",
    "239": "�",
    "240": "�",
    "241": "�",
    "242": "�",
    "243": "�",
    "244": "�",
    "245": "�",
    "246": "�",
    "247": "�",
    "248": "�",
    "249": "�",
    "250": "�",
    "251": "�",
    "252": "�",
    "253": "�",
    "254": "�",
    "255": "�",
    "256": " t",
    "257": "he",
    "258": " a",
    "259": " s",
    "260": " w",
    "261": " the",
    "262": "nd",
    "263": "ed",
    "264": " b",
    "265": " to",
    "266": " and",
    "267": " h",
    "268": " f",
    "269": " T",
    "270": "in",
    "271": " wa",
    "272": "re",
    "273": "it",
    "274": "ou",
    "275": " l",
    "276": " d",
    "277": " c",
    "278": " p",
    "279": "ay",
    "280": " m",
    "281": "er",
    "282": " was",
    "283": " The",
    "284": "om",
    "285": " he",
    "286": "is",
    "287": " n",
    "288": "im",
    "289": "ar",
    "290": "on",
    "291": " sa",
    "292": "ll",
    "293": "id",
    "294": " ha",
    "295": " g",
    "296": "at",
    "297": " S",
    "298": "ing",
    "299": "ot",
    "300": "en",
    "301": "an",
    "302": "le",
    "303": "or",
    "304": "ir",
    "305": "am",
    "306": "et",
    "307": " H",
    "308": " it",
    "309": " th",
    "310": "ig",
    "311": " They",
    "312": " pl",
    "313": " in",
    "314": "il",
    "315": " He",
    "316": " \"",
    "317": "ow",
    "318": "ver",
    "319": "ri",
    "320": " u",
    "321": "ut",
    "322": " play",
    "323": "ith",
    "324": " said",
    "325": " be",
    "326": " day",
    "327": " with",
    "328": "pp",
    "329": "On",
    "330": " o",
    "331": " y",
    "332": "oo",
    "333": "ked",
    "334": " r",
    "335": " her",
    "336": "ce",
    "337": "ld",
    "338": " his",
    "339": " Tim",
    "340": " I",
    "341": " She",
    "342": " st",
    "343": "ke",
    "344": " e",
    "345": " big",
    "346": "nt",
    "347": "ck",
    "348": "very",
    "349": " you",
    "350": "st",
    "351": "ve",
    "352": "end",
    "353": "un",
    "354": " happ",
    "355": " on",
    "356": "all",
    "357": "riend",
    "358": " friend",
    "359": " they",
    "360": " L",
    "361": "ily",
    "362": " we",
    "363": " had",
    "364": " up",
    "365": " li",
    "366": " not",
    "367": "her",
    "368": " want",
    "369": "itt",
    "370": " of",
    "371": "ad",
    "372": " do",
    "373": " B",
    "374": "se",
    "375": " happy",
    "376": "ent",
    "377": " very",
    "378": " M",
    "379": "es",
    "380": " saw",
    "381": "One",
    "382": " that",
    "383": "ould",
    "384": "'s",
    "385": " for",
    "386": "ittle",
    "387": " mom",
    "388": " little",
    "389": " so",
    "390": " sh",
    "391": " she",
    "392": "ime",
    "393": "ch",
    "394": " nam",
    "395": " time",
    "396": " k",
    "397": " ne",
    "398": "ound",
    "399": ".\"",
    "400": " there",
    "401": " named",
    "402": " bo",
    "403": " sm",
    "404": " were",
    "405": " wanted",
    "406": " Lily",
    "407": " friends",
    "408": "out",
    "409": "ird",
    "410": " but",
    "411": "ved",
    "412": "ht",
    "413": "!\"",
    "414": "The",
    "415": " Tom",
    "416": " bird",
    "417": "el",
    "418": "ake",
    "419": " an",
    "420": "al",
    "421": " too",
    "422": "ome",
    "423": " went",
    "424": " wh",
    "425": "ide",
    "426": "Once",
    "427": " all",
    "428": " It",
    "429": " hel",
    "430": "ug",
    "431": "ue",
    "432": " help",
    "433": " is",
    "434": " loo",
    "435": " A",
    "436": " upon",
    "437": " lo",
    "438": "ter",
    "439": "ry",
    "440": " toy",
    "441": "ore",
    "442": " fun",
    "443": "ind",
    "444": "get",
    "445": "ill",
    "446": "ame",
    "447": " as",
    "448": " j",
    "449": "ra",
    "450": " at",
    "451": "gether",
    "452": " cat",
    "453": " did",
    "454": " re",
    "455": "ur",
    "456": " together",
    "457": "ack",
    "458": " se",
    "459": "ly",
    "460": " tre",
    "461": "ood",
    "462": " dog",
    "463": "ic",
    "464": " could",
    "465": "ted",
    "466": " can",
    "467": " ball",
    "468": "ard",
    "469": " gir",
    "470": " their",
    "471": "ark",
    "472": " girl",
    "473": " played",
    "474": "ec",
    "475": "my",
    "476": " him",
    "477": " go",
    "478": "way",
    "479": " ro",
    "480": "?\"",
    "481": "hed",
    "482": "ain",
    "483": " kn",
    "484": " le",
    "485": " out",
    "486": "hen",
    "487": " are",
    "488": " fr",
    "489": "um",
    "490": "'t",
    "491": " them",
    "492": " boy",
    "493": " sad",
    "494": "ul",
    "495": "ax",
    "496": " tree",
    "497": "other",
    "498": "oug",
    "499": " man",
    "500": " loved",
    "501": " have",
    "502": " cl",
    "503": " found",
    "504": " looked",
    "505": " sp",
    "506": " Sue",
    "507": " star",
    "508": " sc",
    "509": "one",
    "510": " back",
    "511": "own",
    "512": "hing",
    "513": "are",
    "514": " Max",
    "515": " like",
    "516": " bec",
    "517": "side",
    "518": "ful",
    "519": " me",
    "520": "op",
    "521": "ong",
    "522": " park",
    "523": " would",
    "524": "ight",
    "525": " liked",
    "526": "round",
    "527": " One",
    "528": "elt",
    "529": " fa",
    "530": " make",
    "531": " car",
    "532": "ell",
    "533": " But",
    "534": " felt",
    "535": " la",
    "536": " W",
    "537": " asked",
    "538": " Sam",
    "539": "You",
    "540": "ared",
    "541": "omet",
    "542": "ice",
    "543": " came",
    "544": " started",
    "545": " new",
    "546": "ag",
    "547": " see",
    "548": " no",
    "549": "ought",
    "550": "ouse",
    "551": " Ben",
    "552": " al",
    "553": "iled",
    "554": " ag",
    "555": " other",
    "556": " good",
    "557": "pot",
    "558": " somet",
    "559": " small",
    "560": " br",
    "561": "ob",
    "562": "ss",
    "563": " smiled",
    "564": "ade",
    "565": "ried",
    "566": "ings",
    "567": " say",
    "568": " find",
    "569": " wor",
    "570": " away",
    "571": " ex",
    "572": " from",
    "573": " thought",
    "574": " made",
    "575": " Spot",
    "576": " what",
    "577": " home",
    "578": " co",
    "579": " playing",
    "580": "ened",
    "581": " something",
    "582": "ty",
    "583": " put",
    "584": " every",
    "585": " wal",
    "586": "ach",
    "587": " mu",
    "588": "ia",
    "589": "uc",
    "590": "ook",
    "591": "ie",
    "592": "ny",
    "593": " F",
    "594": " again",
    "595": " ran",
    "596": " down",
    "597": "ile",
    "598": "dd",
    "599": "arn",
    "600": " toys",
    "601": "ave",
    "602": " pr",
    "603": "king",
    "604": " scared",
    "605": " some",
    "606": " took",
    "607": " laug",
    "608": " J",
    "609": " house",
    "610": " fl",
    "611": "if",
    "612": "ab",
    "613": " around",
    "614": " box",
    "615": " sw",
    "616": "ure",
    "617": "ick",
    "618": " learn",
    "619": "ep",
    "620": "ret",
    "621": "ish",
    "622": "oud",
    "623": "uck",
    "624": " your",
    "625": " lived",
    "626": " You",
    "627": " things",
    "628": " sun",
    "629": " then",
    "630": " will",
    "631": "ew",
    "632": " bl",
    "633": " my",
    "634": "as",
    "635": " when",
    "636": " ab",
    "637": "pped",
    "638": ",\"",
    "639": "us",
    "640": " get",
    "641": "ank",
    "642": "Tim",
    "643": "Th",
    "644": " ch",
    "645": " lot",
    "646": "ucy",
    "647": "oth",
    "648": "ap",
    "649": "ump",
    "650": " Mia",
    "651": " who",
    "652": " tried",
    "653": "ist",
    "654": " fe",
    "655": " know",
    "656": " got",
    "657": "ited",
    "658": "ust",
    "659": " many",
    "660": " about",
    "661": " says",
    "662": " int",
    "663": "ally",
    "664": "nder",
    "665": " red",
    "666": " knew",
    "667": " pret",
    "668": "ive",
    "669": " dec",
    "670": "Lily",
    "671": "ise",
    "672": "ous",
    "673": " any",
    "674": "au",
    "675": " D",
    "676": "ace",
    "677": " care",
    "678": " more",
    "679": " pic",
    "680": "qu",
    "681": "fter",
    "682": " best",
    "683": "ause",
    "684": " op",
    "685": " became",
    "686": " Lucy",
    "687": " po",
    "688": " water",
    "689": "ways",
    "690": "�",
    "691": "fe",
    "692": " hug",
    "693": " learned",
    "694": " Bob",
    "695": " exc",
    "696": " because",
    "697": "ite",
    "698": " always",
    "699": " look",
    "700": " outside",
    "701": " into",
    "702": " room",
    "703": " both",
    "704": " un",
    "705": "ided",
    "706": " So",
    "707": " show",
    "708": " laughed",
    "709": " eat",
    "710": " decided",
    "711": " And",
    "712": " gre",
    "713": " ho",
    "714": "urp",
    "715": "udd",
    "716": "ant",
    "717": " pe",
    "718": "ers",
    "719": " v",
    "720": " E",
    "721": " Mom",
    "722": " jump",
    "723": "nn",
    "724": " long",
    "725": " one",
    "726": " ke",
    "727": " this",
    "728": " run",
    "729": " nice",
    "730": "Yes",
    "731": " excited",
    "732": " fast",
    "733": "They",
    "734": "Tom",
    "735": " feel",
    "736": " dad",
    "737": " told",
    "738": " mo",
    "739": " sk",
    "740": " inside",
    "741": "our",
    "742": " am",
    "743": " tr",
    "744": " sl",
    "745": "ull",
    "746": "lew",
    "747": " sor",
    "748": " take",
    "749": "urpr",
    "750": " rock",
    "751": "iny",
    "752": " pretty",
    "753": "nna",
    "754": " surpr",
    "755": " gave",
    "756": " each",
    "757": " gra",
    "758": "imal",
    "759": "ink",
    "760": " animal",
    "761": " much",
    "762": " how",
    "763": "Wh",
    "764": " str",
    "765": " old",
    "766": " need",
    "767": "But",
    "768": " than",
    "769": " let",
    "770": "ven",
    "771": "ara",
    "772": "ro",
    "773": "ged",
    "774": " tow",
    "775": "ess",
    "776": " under",
    "777": " C",
    "778": " sorry",
    "779": " or",
    "780": " walked",
    "781": " cle",
    "782": "and",
    "783": "ft",
    "784": " ta",
    "785": " hand",
    "786": "ge",
    "787": " te",
    "788": "ised",
    "789": "og",
    "790": " fish",
    "791": "urn",
    "792": "urt",
    "793": " kind",
    "794": "ff",
    "795": " clo",
    "796": " His",
    "797": " wat",
    "798": "ving",
    "799": " hig",
    "800": " animals",
    "801": "ase",
    "802": " Amy",
    "803": " just",
    "804": " us",
    "805": " happened",
    "806": "ched",
    "807": " food",
    "808": "pl",
    "809": " sky",
    "810": " flow",
    "811": "here",
    "812": " sn",
    "813": "rom",
    "814": " try",
    "815": " list",
    "816": " ide",
    "817": " We",
    "818": " near",
    "819": "gry",
    "820": " didn",
    "821": " idea",
    "822": " bet",
    "823": " en",
    "824": "able",
    "825": "ate",
    "826": "ine",
    "827": " fi",
    "828": " flew",
    "829": "eci",
    "830": " its",
    "831": "ream",
    "832": "Thank",
    "833": " careful",
    "834": " share",
    "835": " cake",
    "836": "ex",
    "837": " heard",
    "838": " better",
    "839": " tw",
    "840": " stor",
    "841": " if",
    "842": "ecial",
    "843": " special",
    "844": " dan",
    "845": "pec",
    "846": "ber",
    "847": "ion",
    "848": " Th",
    "849": " bear",
    "850": " lots",
    "851": " wind",
    "852": "lf",
    "853": "more",
    "854": " anymore",
    "855": "udden",
    "856": " clean",
    "857": " never",
    "858": " fo",
    "859": " don",
    "860": "Mom",
    "861": " gr",
    "862": " bug",
    "863": " tal",
    "864": "ople",
    "865": " com",
    "866": " hard",
    "867": " bu",
    "868": " end",
    "869": " Then",
    "870": " by",
    "871": " fly",
    "872": "uddenly",
    "873": " mag",
    "874": "ort",
    "875": " turn",
    "876": " fore",
    "877": " over",
    "878": " Anna",
    "879": " Every",
    "880": " even",
    "881": "rm",
    "882": "\n\n",
    "883": " love",
    "884": " col",
    "885": " safe",
    "886": " people",
    "887": " after",
    "888": " bad",
    "889": "ady",
    "890": " high",
    "891": " fam",
    "892": " ground",
    "893": "ak",
    "894": " door",
    "895": "imb",
    "896": " come",
    "897": "bb",
    "898": " shiny",
    "899": " proud",
    "900": "As",
    "901": " opened",
    "902": " climb",
    "903": "uff",
    "904": " hurt",
    "905": " picked",
    "906": " blue",
    "907": " loud",
    "908": "pected",
    "909": "Let",
    "910": " che",
    "911": " give",
    "912": " way",
    "913": " surprised",
    "914": " gl",
    "915": "'m",
    "916": "expected",
    "917": " unexpected",
    "918": "ild",
    "919": " thanked",
    "920": " cu",
    "921": " book",
    "922": "ummy",
    "923": " When",
    "924": " From",
    "925": " call",
    "926": " color",
    "927": " Her",
    "928": " far",
    "929": "arden",
    "930": " garden",
    "931": " magic",
    "932": " ever",
    "933": " K",
    "934": " par",
    "935": "ough",
    "936": "kay",
    "937": " im",
    "938": " hugged",
    "939": " still",
    "940": " place",
    "941": "No",
    "942": " unt",
    "943": "ool",
    "944": " off",
    "945": " Sara",
    "946": "age",
    "947": " ma",
    "948": " smile",
    "949": " walk",
    "950": "ture",
    "951": " P",
    "952": " jumped",
    "953": " family",
    "954": " In",
    "955": " until",
    "956": "unny",
    "957": "iz",
    "958": "hes",
    "959": " pa",
    "960": "em",
    "961": " should",
    "962": " qu",
    "963": " now",
    "964": "ip",
    "965": " kid",
    "966": "ct",
    "967": " stick",
    "968": "itty",
    "969": " stay",
    "970": " strong",
    "971": " forest",
    "972": " sto",
    "973": "ane",
    "974": " dra",
    "975": "aut",
    "976": " app",
    "977": "uffy",
    "978": "dy",
    "979": " bro",
    "980": " boat",
    "981": " great",
    "982": " squ",
    "983": " bra",
    "984": " beaut",
    "985": " tra",
    "986": "xt",
    "987": " next",
    "988": " jo",
    "989": " helped",
    "990": " Sally",
    "991": "lease",
    "992": " hat",
    "993": "les",
    "994": " happily",
    "995": " picture",
    "996": " story",
    "997": "iful",
    "998": "ies",
    "999": " beautiful",
    "1000": " listen",
    "1001": "ning",
    "1002": "th",
    "1003": " showed",
    "1004": " while",
    "1005": " called",
    "1006": "oon",
    "1007": " met",
    "1008": " clos",
    "1009": "Now",
    "1010": " kids",
    "1011": "pt",
    "1012": " open",
    "1013": " frog",
    "1014": " mor",
    "1015": " rem",
    "1016": "luffy",
    "1017": " town",
    "1018": " soft",
    "1019": " everyone",
    "1020": "Can",
    "1021": "It",
    "1022": "ger",
    "1023": " imp",
    "1024": " being",
    "1025": "He",
    "1026": "When",
    "1027": " stopped",
    "1028": " ad",
    "1029": "rel",
    "1030": " rain",
    "1031": " angry",
    "1032": "by",
    "1033": " yummy",
    "1034": " watch",
    "1035": "bit",
    "1036": " doll",
    "1037": " couldn",
    "1038": " ca",
    "1039": "abbit",
    "1040": "vent",
    "1041": "ary",
    "1042": " Let",
    "1043": "ree",
    "1044": " truck",
    "1045": " de",
    "1046": "ished",
    "1047": " Kitty",
    "1048": " mouse",
    "1049": " rabbit",
    "1050": "be",
    "1051": "dded",
    "1052": " ate",
    "1053": "ress",
    "1054": "iss",
    "1055": " wo",
    "1056": " Fluffy",
    "1057": " lost",
    "1058": " warm",
    "1059": " slide",
    "1060": " face",
    "1061": " brave",
    "1062": " game",
    "1063": " Wh",
    "1064": " keep",
    "1065": " fell",
    "1066": "fore",
    "1067": " leave",
    "1068": " flowers",
    "1069": " two",
    "1070": " cook",
    "1071": "owl",
    "1072": " bed",
    "1073": " cry",
    "1074": " pus",
    "1075": "illy",
    "1076": "so",
    "1077": "ock",
    "1078": " soon",
    "1079": " noise",
    "1080": " green",
    "1081": " also",
    "1082": " R",
    "1083": "That",
    "1084": " bunny",
    "1085": "ear",
    "1086": " nodded",
    "1087": " where",
    "1088": "gan",
    "1089": "self",
    "1090": " fix",
    "1091": " sat",
    "1092": " having",
    "1093": "ired",
    "1094": "Hi",
    "1095": " yell",
    "1096": " before",
    "1097": "”",
    "1098": " kept",
    "1099": " hole",
    "1100": " pain",
    "1101": "“",
    "1102": " hear",
    "1103": "ble",
    "1104": "day",
    "1105": " store",
    "1106": "What",
    "1107": " hands",
    "1108": " catch",
    "1109": "Look",
    "1110": " use",
    "1111": "irrel",
    "1112": "Then",
    "1113": " sing",
    "1114": " fin",
    "1115": "az",
    "1116": "irst",
    "1117": " used",
    "1118": " mommy",
    "1119": " thr",
    "1120": " expl",
    "1121": " funny",
    "1122": " squirrel",
    "1123": " birds",
    "1124": "Ben",
    "1125": " Now",
    "1126": " cra",
    "1127": " looking",
    "1128": "uch",
    "1129": " tired",
    "1130": " ey",
    "1131": " going",
    "1132": " wait",
    "1133": " bre",
    "1134": " kit",
    "1135": "oy",
    "1136": "eet",
    "1137": "aybe",
    "1138": "leep",
    "1139": " mean",
    "1140": "ange",
    "1141": "thing",
    "1142": "ught",
    "1143": " our",
    "1144": "led",
    "1145": " pull",
    "1146": "air",
    "1147": " dif",
    "1148": " fav",
    "1149": " sunny",
    "1150": " tri",
    "1151": " pond",
    "1152": "ember",
    "1153": " Can",
    "1154": " has",
    "1155": "chen",
    "1156": " kitchen",
    "1157": " wr",
    "1158": " party",
    "1159": " think",
    "1160": " ice",
    "1161": " flo",
    "1162": "orn",
    "1163": "oh",
    "1164": " work",
    "1165": "ting",
    "1166": "ac",
    "1167": "We",
    "1168": " head",
    "1169": "uit",
    "1170": " bus",
    "1171": " worked",
    "1172": " mess",
    "1173": " dr",
    "1174": "ng",
    "1175": " real",
    "1176": " Do",
    "1177": "zy",
    "1178": "ious",
    "1179": "ohn",
    "1180": " okay",
    "1181": " others",
    "1182": " sound",
    "1183": "llow",
    "1184": " moral",
    "1185": " beh",
    "1186": " eyes",
    "1187": "ath",
    "1188": " sand",
    "1189": "rew",
    "1190": " talk",
    "1191": " shared",
    "1192": " advent",
    "1193": " z",
    "1194": " remember",
    "1195": " “",
    "1196": " favor",
    "1197": "joy",
    "1198": "ma",
    "1199": " favorite",
    "1200": "ello",
    "1201": "Hello",
    "1202": " right",
    "1203": " ask",
    "1204": " curi",
    "1205": " cut",
    "1206": " cold",
    "1207": " ri",
    "1208": " hop",
    "1209": " con",
    "1210": " import",
    "1211": " hill",
    "1212": " mon",
    "1213": "lly",
    "1214": " dir",
    "1215": "imes",
    "1216": " making",
    "1217": " enjoy",
    "1218": " follow",
    "1219": " curious",
    "1220": " vo",
    "1221": " pie",
    "1222": " bright",
    "1223": " yard",
    "1224": " G",
    "1225": "At",
    "1226": " flower",
    "1227": "ken",
    "1228": "Don",
    "1229": " sweet",
    "1230": "reed",
    "1231": " move",
    "1232": " duck",
    "1233": " dis",
    "1234": " rest",
    "1235": " own",
    "1236": " draw",
    "1237": " first",
    "1238": " important",
    "1239": " top",
    "1240": " Jack",
    "1241": " sho",
    "1242": " cla",
    "1243": " began",
    "1244": " tall",
    "1245": " pick",
    "1246": " block",
    "1247": " watched",
    "1248": "ount",
    "1249": " sleep",
    "1250": " bel",
    "1251": " lady",
    "1252": "After",
    "1253": " night",
    "1254": " thing",
    "1255": "Wow",
    "1256": "ied",
    "1257": " race",
    "1258": "ster",
    "1259": " tail",
    "1260": " hot",
    "1261": "fere",
    "1262": " hid",
    "1263": " hun",
    "1264": " differe",
    "1265": " agreed",
    "1266": " floor",
    "1267": " shout",
    "1268": " here",
    "1269": " stop",
    "1270": "ect",
    "1271": " forg",
    "1272": " dark",
    "1273": " This",
    "1274": " bag",
    "1275": " grass",
    "1276": "ign",
    "1277": " worry",
    "1278": " song",
    "1279": " table",
    "1280": " tast",
    "1281": " tell",
    "1282": "que",
    "1283": " prin",
    "1284": " needed",
    "1285": " leaves",
    "1286": "aring",
    "1287": " voice",
    "1288": " yellow",
    "1289": " read",
    "1290": "aper",
    "1291": " farm",
    "1292": " Fin",
    "1293": " ru",
    "1294": " trees",
    "1295": " dress",
    "1296": " hair",
    "1297": " swing",
    "1298": "Why",
    "1299": " different",
    "1300": " del",
    "1301": " adventure",
    "1302": " walking",
    "1303": " turned",
    "1304": " surprise",
    "1305": " please",
    "1306": "’",
    "1307": " Mr",
    "1308": " hungry",
    "1309": "Max",
    "1310": " does",
    "1311": " cars",
    "1312": " Suddenly",
    "1313": " colors",
    "1314": " Dad",
    "1315": "oom",
    "1316": "Suddenly",
    "1317": " laugh",
    "1318": "bo",
    "1319": "Sue",
    "1320": " closer",
    "1321": "ached",
    "1322": "Sam",
    "1323": " pretend",
    "1324": "co",
    "1325": " lion",
    "1326": "ient",
    "1327": "ered",
    "1328": "ila",
    "1329": " broken",
    "1330": " wood",
    "1331": " prom",
    "1332": " cried",
    "1333": "bye",
    "1334": " wet",
    "1335": " piece",
    "1336": " friendly",
    "1337": " Timmy",
    "1338": " full",
    "1339": " behind",
    "1340": " train",
    "1341": "isy",
    "1342": " dance",
    "1343": "Anna",
    "1344": "ppy",
    "1345": " touch",
    "1346": " climbed",
    "1347": " another",
    "1348": " danc",
    "1349": "af",
    "1350": "So",
    "1351": " gone",
    "1352": "where",
    "1353": " apple",
    "1354": " smell",
    "1355": "bbed",
    "1356": " swim",
    "1357": " ste",
    "1358": "cked",
    "1359": " blocks",
    "1360": "ater",
    "1361": " feeling",
    "1362": "sh",
    "1363": " paper",
    "1364": " That",
    "1365": "She",
    "1366": " amaz",
    "1367": " As",
    "1368": " ant",
    "1369": " per",
    "1370": " butter",
    "1371": " running",
    "1372": " Jane",
    "1373": " reached",
    "1374": " helping",
    "1375": " listened",
    "1376": " fair",
    "1377": "iced",
    "1378": " goodbye",
    "1379": " ready",
    "1380": "av",
    "1381": " only",
    "1382": " hold",
    "1383": " light",
    "1384": " ac",
    "1385": "ray",
    "1386": "aby",
    "1387": "ike",
    "1388": " O",
    "1389": " roll",
    "1390": "Sara",
    "1391": " cream",
    "1392": " Bobo",
    "1393": " repl",
    "1394": " dri",
    "1395": "key",
    "1396": " sit",
    "1397": " pushed",
    "1398": " fight",
    "1399": " slow",
    "1400": " plan",
    "1401": " close",
    "1402": "red",
    "1403": " All",
    "1404": " less",
    "1405": " done",
    "1406": "pe",
    "1407": " wag",
    "1408": " wall",
    "1409": " owl",
    "1410": " cool",
    "1411": " sees",
    "1412": " must",
    "1413": " glad",
    "1414": " fruit",
    "1415": " wise",
    "1416": "ield",
    "1417": " tiny",
    "1418": " wonder",
    "1419": " moment",
    "1420": " trying",
    "1421": " stuck",
    "1422": "ather",
    "1423": " dream",
    "1424": "In",
    "1425": " through",
    "1426": " din",
    "1427": "ash",
    "1428": " wished",
    "1429": " pen",
    "1430": " fire",
    "1431": "ames",
    "1432": " reach",
    "1433": " thank",
    "1434": " bar",
    "1435": " been",
    "1436": " baby",
    "1437": " window",
    "1438": " join",
    "1439": " explore",
    "1440": "ott",
    "1441": " looks",
    "1442": " doing",
    "1443": " Everyone",
    "1444": " ar",
    "1445": " buy",
    "1446": " bit",
    "1447": " shouted",
    "1448": " air",
    "1449": "Mia",
    "1450": " hide",
    "1451": " build",
    "1452": " Mommy",
    "1453": " nest",
    "1454": " swam",
    "1455": " scary",
    "1456": " fall",
    "1457": " coming",
    "1458": " cloud",
    "1459": " land",
    "1460": " bran",
    "1461": "oney",
    "1462": " win",
    "1463": " blew",
    "1464": " seen",
    "1465": "andy",
    "1466": " perf",
    "1467": "ask",
    "1468": " dirty",
    "1469": " child",
    "1470": " held",
    "1471": " books",
    "1472": "avy",
    "1473": "ph",
    "1474": " bigger",
    "1475": " replied",
    "1476": " quick",
    "1477": " left",
    "1478": " mat",
    "1479": "ely",
    "1480": " underst",
    "1481": " might",
    "1482": " treat",
    "1483": "ndma",
    "1484": " colorful",
    "1485": " pulled",
    "1486": " grabbed",
    "1487": " why",
    "1488": " turns",
    "1489": "Okay",
    "1490": " dro",
    "1491": " butterf",
    "1492": "ized",
    "1493": " remembered",
    "1494": "icy",
    "1495": " fill",
    "1496": " name",
    "1497": "ucky",
    "1498": " cup",
    "1499": " chair",
    "1500": " cast",
    "1501": " broke",
    "1502": "orm",
    "1503": " sometimes",
    "1504": " count",
    "1505": "aisy",
    "1506": " three",
    "1507": " sure",
    "1508": "oup",
    "1509": "ation",
    "1510": " spl",
    "1511": " hopped",
    "1512": " pink",
    "1513": "ton",
    "1514": " stayed",
    "1515": " snow",
    "1516": " job",
    "1517": " clapped",
    "1518": "up",
    "1519": "Oh",
    "1520": " games",
    "1521": "der",
    "1522": " bott",
    "1523": " gif",
    "1524": "ee",
    "1525": " waited",
    "1526": "'re",
    "1527": " There",
    "1528": " plant",
    "1529": " noticed",
    "1530": " grow",
    "1531": " lesson",
    "1532": " balloon",
    "1533": "ix",
    "1534": " anything",
    "1535": " pictures",
    "1536": " woods",
    "1537": "outh",
    "1538": " mouth",
    "1539": " paint",
    "1540": " After",
    "1541": "uddy",
    "1542": " waved",
    "1543": " set",
    "1544": "ower",
    "1545": " enjoyed",
    "1546": "room",
    "1547": " spot",
    "1548": " alone",
    "1549": " pot",
    "1550": " cont",
    "1551": "This",
    "1552": " sea",
    "1553": " brother",
    "1554": "ds",
    "1555": " likes",
    "1556": "art",
    "1557": "oun",
    "1558": "amp",
    "1559": "Her",
    "1560": " tight",
    "1561": "\".",
    "1562": " year",
    "1563": " threw",
    "1564": " heavy",
    "1565": " white",
    "1566": " followed",
    "1567": " quickly",
    "1568": " gent",
    "1569": " butterfly",
    "1570": "ins",
    "1571": "Spot",
    "1572": " miss",
    "1573": " cookies",
    "1574": "ape",
    "1575": " ju",
    "1576": " deep",
    "1577": "asure",
    "1578": "olly",
    "1579": " everywhere",
    "1580": "de",
    "1581": "Lucy",
    "1582": "ze",
    "1583": " bee",
    "1584": " pat",
    "1585": "oe",
    "1586": " John",
    "1587": "ries",
    "1588": "aught",
    "1589": " mar",
    "1590": "Bob",
    "1591": " world",
    "1592": "ister",
    "1593": "cle",
    "1594": " clot",
    "1595": " wrong",
    "1596": " clothes",
    "1597": " castle",
    "1598": " cre",
    "1599": " wear",
    "1600": "less",
    "1601": "lc",
    "1602": " pu",
    "1603": "ross",
    "1604": " mum",
    "1605": " button",
    "1606": " leaf",
    "1607": "iet",
    "1608": " nap",
    "1609": " Buddy",
    "1610": " ve",
    "1611": "ner",
    "1612": " quiet",
    "1613": " mix",
    "1614": " key",
    "1615": "arent",
    "1616": " makes",
    "1617": "ang",
    "1618": " brought",
    "1619": " round",
    "1620": "row",
    "1621": " parent",
    "1622": "ully",
    "1623": "ued",
    "1624": "rot",
    "1625": " wants",
    "1626": " well",
    "1627": " himself",
    "1628": " Daisy",
    "1629": "os",
    "1630": " won",
    "1631": " ride",
    "1632": " delic",
    "1633": " field",
    "1634": "man",
    "1635": " danced",
    "1636": " break",
    "1637": " arm",
    "1638": " tower",
    "1639": " Lila",
    "1640": "Do",
    "1641": " sign",
    "1642": " What",
    "1643": "fully",
    "1644": " snack",
    "1645": " hit",
    "1646": "thy",
    "1647": " drag",
    "1648": " faster",
    "1649": " king",
    "1650": " gift",
    "1651": " talked",
    "1652": " forgot",
    "1653": " wish",
    "1654": " leg",
    "1655": " beach",
    "1656": "gg",
    "1657": " sister",
    "1658": " river",
    "1659": " mus",
    "1660": "cess",
    "1661": "ence",
    "1662": " finished",
    "1663": " branch",
    "1664": " dry",
    "1665": " comp",
    "1666": "leph",
    "1667": "ves",
    "1668": "itten",
    "1669": "cy",
    "1670": " sharing",
    "1671": "From",
    "1672": " pol",
    "1673": " bike",
    "1674": " Inside",
    "1675": " dinner",
    "1676": " dragon",
    "1677": " fur",
    "1678": "ards",
    "1679": " ra",
    "1680": " danger",
    "1681": " rel",
    "1682": " em",
    "1683": " really",
    "1684": " bor",
    "1685": "ipp",
    "1686": " vis",
    "1687": " understand",
    "1688": " shin",
    "1689": "ance",
    "1690": " To",
    "1691": " black",
    "1692": "John",
    "1693": "ren",
    "1694": " bottle",
    "1695": " monkey",
    "1696": " fox",
    "1697": "His",
    "1698": "eddy",
    "1699": " monster",
    "1700": " pig",
    "1701": " smart",
    "1702": " At",
    "1703": " poin",
    "1704": " worried",
    "1705": " rocks",
    "1706": " contin",
    "1707": "Amy",
    "1708": " gu",
    "1709": " carefully",
    "1710": " bowl",
    "1711": " someone",
    "1712": "imi",
    "1713": "ctor",
    "1714": " fairy",
    "1715": " today",
    "1716": " att",
    "1717": "ast",
    "1718": " filled",
    "1719": " side",
    "1720": " pudd",
    "1721": " eating",
    "1722": "ush",
    "1723": " welc",
    "1724": " el",
    "1725": "ses",
    "1726": "vel",
    "1727": " gi",
    "1728": " cow",
    "1729": " boun",
    "1730": "itting",
    "1731": " snake",
    "1732": " brown",
    "1733": "ead",
    "1734": " whe",
    "1735": " promised",
    "1736": " fan",
    "1737": "While",
    "1738": " silly",
    "1739": " pet",
    "1740": " happen",
    "1741": "Just",
    "1742": " everything",
    "1743": " yes",
    "1744": "ts",
    "1745": " res",
    "1746": " parents",
    "1747": " Soon",
    "1748": " Maybe",
    "1749": " soup",
    "1750": " visit",
    "1751": " music",
    "1752": " mud",
    "1753": " letter",
    "1754": "ated",
    "1755": " free",
    "1756": " else",
    "1757": " pieces",
    "1758": " road",
    "1759": " children",
    "1760": "stead",
    "1761": " bite",
    "1762": " shop",
    "1763": " sang",
    "1764": " continued",
    "1765": "Fin",
    "1766": " talking",
    "1767": " perfect",
    "1768": " kite",
    "1769": "zz",
    "1770": " flying",
    "1771": " egg",
    "1772": " smiles",
    "1773": " throw",
    "1774": " realized",
    "1775": " Billy",
    "1776": " mail",
    "1777": " ear",
    "1778": " Sarah",
    "1779": "ord",
    "1780": " words",
    "1781": " Em",
    "1782": ".”",
    "1783": " amazing",
    "1784": "cket",
    "1785": " laughing",
    "1786": " jar",
    "1787": " wagged",
    "1788": " orange",
    "1789": " que",
    "1790": " sec",
    "1791": " moved",
    "1792": " sitting",
    "1793": " enough",
    "1794": " closed",
    "1795": " Z",
    "1796": " pass",
    "1797": " without",
    "1798": " shining",
    "1799": " mother",
    "1800": "gly",
    "1801": " smo",
    "1802": " stand",
    "1803": " crab",
    "1804": " buck",
    "1805": " sail",
    "1806": " rope",
    "1807": " dangerous",
    "1808": "fort",
    "1809": " strange",
    "1810": " secret",
    "1811": " barked",
    "1812": " bath",
    "1813": " stu",
    "1814": " tasty",
    "1815": " drink",
    "1816": " Mimi",
    "1817": "unch",
    "1818": " welcome",
    "1819": "fish",
    "1820": "ella",
    "1821": " paw",
    "1822": "used",
    "1823": "iver",
    "1824": "board",
    "1825": " crying",
    "1826": " whist",
    "1827": " past",
    "1828": " heal",
    "1829": " ce",
    "1830": "ises",
    "1831": " lon",
    "1832": " candy",
    "1833": " living",
    "1834": " Joe",
    "1835": " -",
    "1836": " higher",
    "1837": "ches",
    "1838": "Maybe",
    "1839": " lonely",
    "1840": " pre",
    "1841": " owner",
    "1842": " Ch",
    "1843": " shoes",
    "1844": " belie",
    "1845": " sack",
    "1846": " farmer",
    "1847": "Please",
    "1848": " morning",
    "1849": "chool",
    "1850": "ato",
    "1851": "arm",
    "1852": " tom",
    "1853": " Jen",
    "1854": "gy",
    "1855": " swings",
    "1856": " delicious",
    "1857": " purp",
    "1858": "ract",
    "1859": " school",
    "1860": "llie",
    "1861": "isk",
    "1862": " scream",
    "1863": " teac",
    "1864": "ible",
    "1865": " push",
    "1866": " finally",
    "1867": "!”",
    "1868": " stone",
    "1869": " rolled",
    "1870": " ph",
    "1871": " grandma",
    "1872": "lephant",
    "1873": "lder",
    "1874": "Mommy",
    "1875": " puddle",
    "1876": "ich",
    "1877": " stre",
    "1878": " dolls",
    "1879": "me",
    "1880": " Bl",
    "1881": " getting",
    "1882": " blank",
    "1883": "ire",
    "1884": "ama",
    "1885": " purple",
    "1886": " lake",
    "1887": " asks",
    "1888": "lla",
    "1889": "asket",
    "1890": " years",
    "1891": " trou",
    "1892": " shell",
    "1893": " mad",
    "1894": "ased",
    "1895": " caught",
    "1896": " blanket",
    "1897": " corn",
    "1898": "set",
    "1899": " treasure",
    "1900": " wore",
    "1901": " runs",
    "1902": " money",
    "1903": "ub",
    "1904": " basket",
    "1905": " hoped",
    "1906": "ons",
    "1907": " pile",
    "1908": "iskers",
    "1909": " same",
    "1910": "eo",
    "1911": " singing",
    "1912": "app",
    "1913": " herself",
    "1914": "ey",
    "1915": " wings",
    "1916": " pers",
    "1917": " apples",
    "1918": "cks",
    "1919": " cute",
    "1920": " ben",
    "1921": "br",
    "1922": " mine",
    "1923": " je",
    "1924": " bat",
    "1925": " Tommy",
    "1926": "igh",
    "1927": " plane",
    "1928": " gentle",
    "1929": " carrot",
    "1930": " cray",
    "1931": "\n ",
    "1932": " teacher",
    "1933": " elephant",
    "1934": " coat",
    "1935": " sear",
    "1936": " pill",
    "1937": " dropped",
    "1938": " balls",
    "1939": " start",
    "1940": " fit",
    "1941": " teddy",
    "1942": " days",
    "1943": "thday",
    "1944": "irthday",
    "1945": " cour",
    "1946": " doctor",
    "1947": "Finally",
    "1948": "ined",
    "1949": " war",
    "1950": " course",
    "1951": " forever",
    "1952": "aughty",
    "1953": " woke",
    "1954": " joy",
    "1955": " naughty",
    "1956": " hiding",
    "1957": " seed",
    "1958": " card",
    "1959": " promise",
    "1960": " min",
    "1961": " bring",
    "1962": "ilk",
    "1963": " Whiskers",
    "1964": " most",
    "1965": " arri",
    "1966": " teach",
    "1967": " spin",
    "1968": " cookie",
    "1969": " cr",
    "1970": " band",
    "1971": "umpy",
    "1972": "ol",
    "1973": "ator",
    "1974": " shap",
    "1975": " fence",
    "1976": " chee",
    "1977": " rob",
    "1978": " bush",
    "1979": " Gra",
    "1980": " Blue",
    "1981": " thinks",
    "1982": " shr",
    "1983": " milk",
    "1984": " lunch",
    "1985": " ugly",
    "1986": " eas",
    "1987": " birthday",
    "1988": "arp",
    "1989": " nose",
    "1990": " touc",
    "1991": "ose",
    "1992": " juice",
    "1993": " Thank",
    "1994": " vill",
    "1995": " ob",
    "1996": " grew",
    "1997": " bow",
    "1998": " pop",
    "1999": " belong",
    "2000": "sw",
    "2001": " shapes",
    "2002": " answ",
    "2003": "fused",
    "2004": "itch",
    "2005": "ipped",
    "2006": " sharp",
    "2007": " Fred",
    "2008": "ass",
    "2009": "ail",
    "2010": " creat",
    "2011": " young",
    "2012": " heart",
    "2013": "umber",
    "2014": "sy",
    "2015": "irt",
    "2016": " bench",
    "2017": "ier",
    "2018": " street",
    "2019": " Bella",
    "2020": "bow",
    "2021": "'ll",
    "2022": " Leo",
    "2023": " seem",
    "2024": "Jack",
    "2025": " bone",
    "2026": "erry",
    "2027": " wra",
    "2028": " mark",
    "2029": " late",
    "2030": " able",
    "2031": "sc",
    "2032": "eter",
    "2033": "ball",
    "2034": "ale",
    "2035": " believe",
    "2036": " rocket",
    "2037": " zoom",
    "2038": " bucket",
    "2039": " coin",
    "2040": " bread",
    "2041": " robot",
    "2042": " pocket",
    "2043": " power",
    "2044": " magical",
    "2045": " dirt",
    "2046": " touched",
    "2047": " spoon",
    "2048": " shy",
    "2049": " kiss",
    "2050": " inc",
    "2051": " slowly",
    "2052": " shook",
    "2053": " busy",
    "2054": " twins",
    "2055": " kitten",
    "2056": " prob",
    "2057": " cheered",
    "2058": " arrived",
    "2059": " shake",
    "2060": " feels",
    "2061": " lem",
    "2062": " craw",
    "2063": " seat",
    "2064": " neck",
    "2065": " carry",
    "2066": " trip",
    "2067": " storm",
    "2068": "ling",
    "2069": " amazed",
    "2070": "ung",
    "2071": " spo",
    "2072": " few",
    "2073": "eared",
    "2074": " village",
    "2075": "igg",
    "2076": "OK",
    "2077": " bell",
    "2078": "lem",
    "2079": "idge",
    "2080": " taking",
    "2081": " stories",
    "2082": " patient",
    "2083": " grumpy",
    "2084": " fixed",
    "2085": " coll",
    "2086": "oose",
    "2087": " problem",
    "2088": " nut",
    "2089": "urtle",
    "2090": "ost",
    "2091": " wheel",
    "2092": "Good",
    "2093": " sounds",
    "2094": " wonderful",
    "2095": " live",
    "2096": " gray",
    "2097": " dist",
    "2098": "irp",
    "2099": " rainbow",
    "2100": "una",
    "2101": " wave",
    "2102": " towards",
    "2103": " sug",
    "2104": " huge",
    "2105": " spark",
    "2106": " rude",
    "2107": " driver",
    "2108": " hor",
    "2109": " cover",
    "2110": "ors",
    "2111": "fortable",
    "2112": " whistle",
    "2113": " songs",
    "2114": " cart",
    "2115": " Mark",
    "2116": " cir",
    "2117": "emy",
    "2118": " wide",
    "2119": " Momo",
    "2120": " sal",
    "2121": "epend",
    "2122": "Lila",
    "2123": " rec",
    "2124": " des",
    "2125": "unt",
    "2126": "ens",
    "2127": " string",
    "2128": " disapp",
    "2129": "kin",
    "2130": "elly",
    "2131": "bble",
    "2132": " treats",
    "2133": " suc",
    "2134": "pping",
    "2135": " path",
    "2136": " meet",
    "2137": "iling",
    "2138": " upset",
    "2139": " holding",
    "2140": " cheese",
    "2141": "alm",
    "2142": " moon",
    "2143": "oph",
    "2144": "Be",
    "2145": " turtle",
    "2146": " worm",
    "2147": " wild",
    "2148": "Of",
    "2149": "ourn",
    "2150": "Sure",
    "2151": " lay",
    "2152": " hugs",
    "2153": " N",
    "2154": " grab",
    "2155": " fighting",
    "2156": " life",
    "2157": " giant",
    "2158": " di",
    "2159": " puppy",
    "2160": " peace",
    "2161": " journ",
    "2162": " bugs",
    "2163": "umb",
    "2164": "ring",
    "2165": " smooth",
    "2166": " jew",
    "2167": "adow",
    "2168": " note",
    "2169": " joke",
    "2170": " ban",
    "2171": " noises",
    "2172": " jewel",
    "2173": " cloth",
    "2174": " Just",
    "2175": " Emma",
    "2176": " smelly",
    "2177": " sour",
    "2178": " mist",
    "2179": " honey",
    "2180": "ountain",
    "2181": " lucky",
    "2182": " inv",
    "2183": " ser",
    "2184": " landed",
    "2185": " cou",
    "2186": "ular",
    "2187": "izzy",
    "2188": "onest",
    "2189": " On",
    "2190": "pper",
    "2191": " net",
    "2192": "St",
    "2193": " thin",
    "2194": " rad",
    "2195": " cave",
    "2196": "aur",
    "2197": " princess",
    "2198": " honest",
    "2199": " beak",
    "2200": " Ann",
    "2201": "not",
    "2202": "ife",
    "2203": " jelly",
    "2204": " drive",
    "2205": " boss",
    "2206": "isa",
    "2207": " part",
    "2208": " chew",
    "2209": " banan",
    "2210": "ery",
    "2211": " seek",
    "2212": " cannot",
    "2213": " missed",
    "2214": " act",
    "2215": " Molly",
    "2216": " stars",
    "2217": " med",
    "2218": " ba",
    "2219": "ove",
    "2220": " dogs",
    "2221": "read",
    "2222": " suddenly",
    "2223": " sick",
    "2224": " ign",
    "2225": "sp",
    "2226": " oven",
    "2227": " drove",
    "2228": "lower",
    "2229": " bri",
    "2230": " tea",
    "2231": " step",
    "2232": " splas",
    "2233": " Finally",
    "2234": " shelf",
    "2235": "iger",
    "2236": " exp",
    "2237": " snowman",
    "2238": " wasn",
    "2239": " instead",
    "2240": "Hey",
    "2241": " taste",
    "2242": " foot",
    "2243": " fle",
    "2244": " Dog",
    "2245": " maybe",
    "2246": " ducks",
    "2247": "ope",
    "2248": "ert",
    "2249": "Later",
    "2250": " sel",
    "2251": " across",
    "2252": "ateful",
    "2253": " sandw",
    "2254": " helpful",
    "2255": " fancy",
    "2256": " adventures",
    "2257": "est",
    "2258": " bought",
    "2259": " wash",
    "2260": " organ",
    "2261": "ian",
    "2262": "ere",
    "2263": " cross",
    "2264": "To",
    "2265": " line",
    "2266": " glow",
    "2267": " Remy",
    "2268": " grateful",
    "2269": " comes",
    "2270": " slid",
    "2271": " forget",
    "2272": " confused",
    "2273": " ash",
    "2274": "let",
    "2275": "idy",
    "2276": " spe",
    "2277": " puzz",
    "2278": " pillow",
    "2279": " healthy",
    "2280": " change",
    "2281": " pract",
    "2282": " dish",
    "2283": " zoo",
    "2284": " Ollie",
    "2285": "oomy",
    "2286": "oppy",
    "2287": " val",
    "2288": " stepped",
    "2289": "erest",
    "2290": " last",
    "2291": " lad",
    "2292": " interest",
    "2293": " cap",
    "2294": " selfish",
    "2295": " elder",
    "2296": " cho",
    "2297": "ity",
    "2298": " working",
    "2299": " whole",
    "2300": " elderly",
    "2301": " easy",
    "2302": "ward",
    "2303": " watching",
    "2304": " sticks",
    "2305": " hope",
    "2306": " anyone",
    "2307": "col",
    "2308": " messy",
    "2309": " calm",
    "2310": "amed",
    "2311": " takes",
    "2312": " save",
    "2313": " pri",
    "2314": " forgive",
    "2315": " daddy",
    "2316": " chased",
    "2317": "ize",
    "2318": "irpy",
    "2319": " weak",
    "2320": " team",
    "2321": " myster",
    "2322": " av",
    "2323": " write",
    "2324": " shirt",
    "2325": " ladder",
    "2326": "oc",
    "2327": " wolf",
    "2328": " tape",
    "2329": "to",
    "2330": "pect",
    "2331": " splash",
    "2332": " lemon",
    "2333": " legs",
    "2334": " clever",
    "2335": " Sp",
    "2336": " phone",
    "2337": " mind",
    "2338": " horse",
    "2339": " feather",
    "2340": " plants",
    "2341": " person",
    "2342": " longer",
    "2343": "ider",
    "2344": " tidy",
    "2345": " stret",
    "2346": " prot",
    "2347": " pour",
    "2348": " jog",
    "2349": "ork",
    "2350": "ever",
    "2351": " emp",
    "2352": "izz",
    "2353": "Soon",
    "2354": " pan",
    "2355": " later",
    "2356": " empty",
    "2357": " bark",
    "2358": " along",
    "2359": " Cat",
    "2360": "Sally",
    "2361": " seemed",
    "2362": " faces",
    "2363": " boot",
    "2364": " Bu",
    "2365": " pretended",
    "2366": " lock",
    "2367": " cozy",
    "2368": "bbles",
    "2369": " sleepy",
    "2370": " lift",
    "2371": "ions",
    "2372": " hum",
    "2373": "iting",
    "2374": " waiting",
    "2375": " stir",
    "2376": " saved",
    "2377": " su",
    "2378": " finish",
    "2379": "llo",
    "2380": " swimm",
    "2381": " mach",
    "2382": "pill",
    "2383": "pillar",
    "2384": "Come",
    "2385": " ret",
    "2386": "ually",
    "2387": "ained",
    "2388": "?”",
    "2389": " spicy",
    "2390": " cheer",
    "2391": " chick",
    "2392": " bounce",
    "2393": " Come",
    "2394": " screamed",
    "2395": " return",
    "2396": " ring",
    "2397": " goat",
    "2398": " Lisa",
    "2399": " ent",
    "2400": "ult",
    "2401": " pool",
    "2402": " fake",
    "2403": " Chirpy",
    "2404": "den",
    "2405": " jumping",
    "2406": " Daddy",
    "2407": " supp",
    "2408": " such",
    "2409": " interesting",
    "2410": " wondered",
    "2411": " tie",
    "2412": " clouds",
    "2413": " print",
    "2414": " pin",
    "2415": " mistake",
    "2416": " fruits",
    "2417": " Ducky",
    "2418": "unk",
    "2419": " drank",
    "2420": "ocked",
    "2421": " spray",
    "2422": "erpillar",
    "2423": " though",
    "2424": " plate",
    "2425": " eag",
    "2426": " caterpillar",
    "2427": " stra",
    "2428": " bossy",
    "2429": " Together",
    "2430": "issors",
    "2431": "dge",
    "2432": "box",
    "2433": " onto",
    "2434": " gather",
    "2435": "eth",
    "2436": " kick",
    "2437": " drew",
    "2438": " building",
    "2439": " Benny",
    "2440": " swimming",
    "2441": " scissors",
    "2442": " machine",
    "2443": "lebr",
    "2444": " rich",
    "2445": " With",
    "2446": " TV",
    "2447": "ormal",
    "2448": " sheep",
    "2449": " number",
    "2450": " hidden",
    "2451": " gives",
    "2452": " celebr",
    "2453": " St",
    "2454": " Ella",
    "2455": "ont",
    "2456": " normal",
    "2457": "oof",
    "2458": "ek",
    "2459": " wing",
    "2460": " brush",
    "2461": "Kitty",
    "2462": " lovely",
    "2463": " furry",
    "2464": " explor",
    "2465": " crayons",
    "2466": " cleaned",
    "2467": " arms",
    "2468": " trouble",
    "2469": " glue",
    "2470": " front",
    "2471": "ment",
    "2472": "izza",
    "2473": "aced",
    "2474": " spider",
    "2475": " penc",
    "2476": " pack",
    "2477": " fing",
    "2478": " cher",
    "2479": " My",
    "2480": " sugar",
    "2481": " pointed",
    "2482": " pencil",
    "2483": " match",
    "2484": " lar",
    "2485": " cage",
    "2486": " Doggy",
    "2487": "elp",
    "2488": " mel",
    "2489": " appeared",
    "2490": " Their",
    "2491": " Bunny",
    "2492": "urse",
    "2493": " puts",
    "2494": " smelled",
    "2495": " prince",
    "2496": "osaur",
    "2497": "oop",
    "2498": "ned",
    "2499": " sur",
    "2500": " pray",
    "2501": " gently",
    "2502": " gate",
    "2503": " Luna",
    "2504": " Grandma",
    "2505": "yard",
    "2506": " search",
    "2507": " matter",
    "2508": " dinosaur",
    "2509": " backyard",
    "2510": "And",
    "2511": " fear",
    "2512": " fil",
    "2513": " drum",
    "2514": "pa",
    "2515": " ship",
    "2516": " class",
    "2517": " towel",
    "2518": " queen",
    "2519": " gun",
    "2520": " circle",
    "2521": " van",
    "2522": " smiling",
    "2523": " couch",
    "2524": " Go",
    "2525": "aughter",
    "2526": " tear",
    "2527": " nearby",
    "2528": " imag",
    "2529": " icy",
    "2530": " yelled",
    "2531": " ashamed",
    "2532": " powerful",
    "2533": "gest",
    "2534": " wand",
    "2535": " quest",
    "2536": " places",
    "2537": " flag",
    "2538": " cri",
    "2539": " Somet",
    "2540": " Jerry",
    "2541": "Help",
    "2542": " law",
    "2543": "lev",
    "2544": " wom",
    "2545": " lamp",
    "2546": " af",
    "2547": " Why",
    "2548": "orrow",
    "2549": "icked",
    "2550": " woman",
    "2551": " pizza",
    "2552": " mir",
    "2553": " large",
    "2554": " daughter",
    "2555": " carried",
    "2556": " Mama",
    "2557": "My",
    "2558": " wrap",
    "2559": " trust",
    "2560": " journey",
    "2561": " glass",
    "2562": " ap",
    "2563": "ym",
    "2564": "Stop",
    "2565": " true",
    "2566": " rub",
    "2567": " neigh",
    "2568": " gas",
    "2569": " Jim",
    "2570": "vous",
    "2571": "ror",
    "2572": "ones",
    "2573": " tries",
    "2574": " neighb",
    "2575": " bal",
    "2576": "ique",
    "2577": " unique",
    "2578": " jeep",
    "2579": " ignor",
    "2580": " emb",
    "2581": " Jill",
    "2582": "isp",
    "2583": "ensive",
    "2584": " wearing",
    "2585": " fright",
    "2586": " expensive",
    "2587": " tomorrow",
    "2588": " hur",
    "2589": " goes",
    "2590": " If",
    "2591": "itter",
    "2592": " loves",
    "2593": " dizzy",
    "2594": " Be",
    "2595": "ced",
    "2596": " weird",
    "2597": " saf",
    "2598": " dig",
    "2599": " ants",
    "2600": "ugg",
    "2601": "raid",
    "2602": " these",
    "2603": " mirror",
    "2604": " hello",
    "2605": " dancing",
    "2606": " chase",
    "2607": " Bobby",
    "2608": " spring",
    "2609": " reg",
    "2610": " afraid",
    "2611": " scar",
    "2612": " nothing",
    "2613": " Br",
    "2614": "rass",
    "2615": "arrass",
    "2616": " poor",
    "2617": " frightened",
    "2618": " Tiny",
    "2619": "ndpa",
    "2620": "mer",
    "2621": "kn",
    "2622": " whisp",
    "2623": " test",
    "2624": " ner",
    "2625": " lazy",
    "2626": " embarrass",
    "2627": " eager",
    "2628": " cand",
    "2629": "iff",
    "2630": " protect",
    "2631": "aw",
    "2632": " tomato",
    "2633": " stood",
    "2634": " dest",
    "2635": "ness",
    "2636": "known",
    "2637": " success",
    "2638": " nervous",
    "2639": "bby",
    "2640": " splashed",
    "2641": " puzzle",
    "2642": " bridge",
    "2643": " wis",
    "2644": " wip",
    "2645": " unknown",
    "2646": " pay",
    "2647": " clay",
    "2648": " bake",
    "2649": " incred",
    "2650": " impress",
    "2651": " gold",
    "2652": " gigg",
    "2653": " gen",
    "2654": " decor",
    "2655": " creative",
    "2656": "ventually",
    "2657": "ina",
    "2658": " feet",
    "2659": "era",
    "2660": " incredible",
    "2661": " Rex",
    "2662": " tent",
    "2663": " sol",
    "2664": " sock",
    "2665": " sandwich",
    "2666": " lead",
    "2667": " teeth",
    "2668": " swan",
    "2669": "any",
    "2670": " useful",
    "2671": " clock",
    "2672": " Mary",
    "2673": " How",
    "2674": "ute",
    "2675": "ual",
    "2676": " steak",
    "2677": " respect",
    "2678": " boring",
    "2679": " Bird",
    "2680": " Bear",
    "2681": "berry",
    "2682": " straw",
    "2683": " square",
    "2684": " soap",
    "2685": " disco",
    "2686": "lves",
    "2687": " pres",
    "2688": " mixed",
    "2689": " fool",
    "2690": " closet",
    "2691": "owed",
    "2692": " potato",
    "2693": " peaceful",
    "2694": " pump",
    "2695": " mask",
    "2696": " knocked",
    "2697": "cream",
    "2698": "airs",
    "2699": " whale",
    "2700": " sword",
    "2701": " mysterious",
    "2702": " famous",
    "2703": " burn",
    "2704": "upid",
    "2705": "Tommy",
    "2706": " har",
    "2707": " gener",
    "2708": " bean",
    "2709": " Andy",
    "2710": "we",
    "2711": "rated",
    "2712": " yog",
    "2713": " sold",
    "2714": " shark",
    "2715": " answer",
    "2716": " 3",
    "2717": " sco",
    "2718": "cient",
    "2719": "bled",
    "2720": "arl",
    "2721": " wouldn",
    "2722": " rug",
    "2723": " polite",
    "2724": " kicked",
    "2725": " feed",
    "2726": " Please",
    "2727": "erri",
    "2728": "com",
    "2729": " snacks",
    "2730": " measure",
    "2731": " jam",
    "2732": " disg",
    "2733": " ancient",
    "2734": " relie",
    "2735": " corner",
    "2736": " blow",
    "2737": "ond",
    "2738": " space",
    "2739": " noisy",
    "2740": " esc",
    "2741": "reen",
    "2742": "ote",
    "2743": "imp",
    "2744": " spread",
    "2745": " scarf",
    "2746": " branches",
    "2747": "ormous",
    "2748": " stupid",
    "2749": " painted",
    "2750": " chocol",
    "2751": " Don",
    "2752": "rob",
    "2753": " shoe",
    "2754": " rough",
    "2755": " march",
    "2756": " eggs",
    "2757": " wagon",
    "2758": " paws",
    "2759": "uce",
    "2760": " study",
    "2761": " moms",
    "2762": " frust",
    "2763": " disgust",
    "2764": " dead",
    "2765": " dug",
    "2766": " crown",
    "2767": "robe",
    "2768": " terri",
    "2769": " foolish",
    "2770": " barn",
    "2771": " Sometimes",
    "2772": "enny",
    "2773": "Dad",
    "2774": " steal",
    "2775": " sell",
    "2776": " rare",
    "2777": " present",
    "2778": " mis",
    "2779": " enormous",
    "2780": "getable",
    "2781": " vegetable",
    "2782": " understood",
    "2783": " scare",
    "2784": " salad",
    "2785": " medic",
    "2786": " disgusting",
    "2787": " chocolate",
    "2788": " banana",
    "2789": " bald",
    "2790": "ighed",
    "2791": "edient",
    "2792": "corn",
    "2793": "ado",
    "2794": " stuff",
    "2795": " medicine",
    "2796": " hero",
    "2797": " generous",
    "2798": " clap",
    "2799": "fic",
    "2800": " group",
    "2801": " goose",
    "2802": " diffic",
    "2803": " bitter",
    "2804": "pes",
    "2805": " thick",
    "2806": " roar",
    "2807": " perform",
    "2808": " mush",
    "2809": " frustrated",
    "2810": " difficult",
    "2811": " breath",
    "2812": " Sammy",
    "2813": " Instead",
    "2814": " tick",
    "2815": " smaller",
    "2816": " shadow",
    "2817": " melon",
    "2818": " market",
    "2819": " covered",
    "2820": " Pe",
    "2821": "uitar",
    "2822": " tasted",
    "2823": " ord",
    "2824": " obedient",
    "2825": " guitar",
    "2826": "roy",
    "2827": "port",
    "2828": "orry",
    "2829": "mb",
    "2830": " wake",
    "2831": "alk",
    "2832": " lab",
    "2833": " hang",
    "2834": " horn",
    "2835": " destroy",
    "2836": " Some",
    "2837": "inal",
    "2838": "asses",
    "2839": " toug",
    "2840": " ref",
    "2841": " mountain",
    "2842": " mot",
    "2843": " bored",
    "2844": " asleep",
    "2845": "aking",
    "2846": "Timmy",
    "2847": " which",
    "2848": " taught",
    "2849": " standing",
    "2850": "usual",
    "2851": "land",
    "2852": " relieved",
    "2853": " harm",
    "2854": " become",
    "2855": " Brown",
    "2856": " tough",
    "2857": " terrible",
    "2858": " suit",
    "2859": " joined",
    "2860": "ungle",
    "2861": "atter",
    "2862": "alous",
    "2863": " squash",
    "2864": " pebble",
    "2865": " mushroom",
    "2866": " moving",
    "2867": " jealous",
    "2868": " exploring",
    "2869": "iginal",
    "2870": "fted",
    "2871": "als",
    "2872": " yourself",
    "2873": " parrot",
    "2874": " knife",
    "2875": " jungle",
    "2876": " adm",
    "2877": "Together",
    "2878": "Here",
    "2879": " unusual",
    "2880": " tun",
    "2881": " pumpkin",
    "2882": " discover",
    "2883": " clear",
    "2884": " asking",
    "2885": " spoiled",
    "2886": " prize",
    "2887": " dull",
    "2888": "ulb",
    "2889": "atch",
    "2890": " sunf",
    "2891": " fat",
    "2892": " chicken",
    "2893": " tiger",
    "2894": " popcorn",
    "2895": " nuts",
    "2896": " mighty",
    "2897": " thoughtful",
    "2898": " hears",
    "2899": " fine",
    "2900": " comb",
    "2901": " bulb",
    "2902": "ume",
    "2903": "mp",
    "2904": "ident",
    "2905": " vase",
    "2906": " twist",
    "2907": " tool",
    "2908": " stri",
    "2909": " seeds",
    "2910": " sque",
    "2911": " hay",
    "2912": " Poppy",
    "2913": "rag",
    "2914": "erce",
    "2915": " original",
    "2916": " fierce",
    "2917": " drop",
    "2918": " ind",
    "2919": " snee",
    "2920": " ending",
    "2921": " drawing",
    "2922": " cop",
    "2923": " Will",
    "2924": " thankful",
    "2925": " island",
    "2926": " carrots",
    "2927": "umsy",
    "2928": "Inside",
    "2929": " spent",
    "2930": " relax",
    "2931": " muff",
    "2932": " embarrassed",
    "2933": " cheap",
    "2934": " cro",
    "2935": "selves",
    "2936": " troubled",
    "2937": " mic",
    "2938": " knowing",
    "2939": " fold",
    "2940": " eng",
    "2941": " clown",
    "2942": " bloom",
    "2943": " aunt",
    "2944": "oto",
    "2945": "comfortable",
    "2946": "Are",
    "2947": " temp",
    "2948": " sunflower",
    "2949": " record",
    "2950": " frown",
    "2951": " finding",
    "2952": " balance",
    "2953": " Tr",
    "2954": " uncomfortable",
    "2955": " lose",
    "2956": " hats",
    "2957": " chest",
    "2958": " Many",
    "2959": " '",
    "2960": "ser",
    "2961": "irsty",
    "2962": "cean",
    "2963": " shoot",
    "2964": " ocean",
    "2965": " guess",
    "2966": " exciting",
    "2967": " cone",
    "2968": " adventur",
    "2969": " add",
    "2970": " Sunny",
    "2971": " Al",
    "2972": "xible",
    "2973": "iness",
    "2974": "ilt",
    "2975": " stamp",
    "2976": " lifted",
    "2977": " acorn",
    "2978": "yal",
    "2979": "opard",
    "2980": "dle",
    "2981": " trick",
    "2982": " seal",
    "2983": " scatter",
    "2984": " clumsy",
    "2985": " Jenny",
    "2986": "angle",
    "2987": "ages",
    "2988": "Sorry",
    "2989": " wrote",
    "2990": " pasta",
    "2991": " hairy",
    "2992": " cush",
    "2993": " adventurous",
    "2994": "lace",
    "2995": "Where",
    "2996": " unl",
    "2997": " picks",
    "2998": " necklace",
    "2999": " loyal",
    "3000": " crazy",
    "3001": " cats",
    "3002": " body",
    "3003": " arrow",
    "3004": "ti",
    "3005": "erries",
    "3006": " tells",
    "3007": " stubb",
    "3008": " hose",
    "3009": " harmless",
    "3010": " exam",
    "3011": " depend",
    "3012": " comfortable",
    "3013": " cost",
    "3014": " brace",
    "3015": " berries",
    "3016": "xious",
    "3017": "urkey",
    "3018": "iant",
    "3019": "amond",
    "3020": "apped",
    "3021": " searched",
    "3022": " deliver",
    "3023": " behave",
    "3024": "tti",
    "3025": "hetti",
    "3026": "aghetti",
    "3027": " organized",
    "3028": " engine",
    "3029": " diamond",
    "3030": " anxious",
    "3031": "gu",
    "3032": "ependent",
    "3033": "Molly",
    "3034": " stubborn",
    "3035": " remind",
    "3036": " mov",
    "3037": " fis",
    "3038": " crayon",
    "3039": " collect",
    "3040": "light",
    "3041": " thirsty",
    "3042": " turkey",
    "3043": " swe",
    "3044": " stretch",
    "3045": " scr",
    "3046": " practiced",
    "3047": " playful",
    "3048": " Emily",
    "3049": "host",
    "3050": "anged",
    "3051": " word",
    "3052": " tied",
    "3053": " pir",
    "3054": " mailbox",
    "3055": " jug",
    "3056": " gloomy",
    "3057": " frag",
    "3058": " envel",
    "3059": " env",
    "3060": " bubbles",
    "3061": "lph",
    "3062": "illa",
    "3063": "dile",
    "3064": "codile",
    "3065": "ants",
    "3066": " yours",
    "3067": " spaghetti",
    "3068": " rep",
    "3069": " raced",
    "3070": " prun",
    "3071": " police",
    "3072": " independent",
    "3073": " flexible",
    "3074": " crawl",
    "3075": " bathroom",
    "3076": " barber",
    "3077": "How",
    "3078": " sil",
    "3079": " pro",
    "3080": " escape",
    "3081": " deer",
    "3082": " crack",
    "3083": " Even",
    "3084": " pige",
    "3085": " passed",
    "3086": " motor",
    "3087": " liz",
    "3088": " ghost",
    "3089": " fragile",
    "3090": " U",
    "3091": "aff",
    "3092": " needs",
    "3093": " jolly",
    "3094": " dependable",
    "3095": " deaf",
    "3096": " celebrate",
    "3097": "shine",
    "3098": "io",
    "3099": " wheat",
    "3100": " stove",
    "3101": " roof",
    "3102": " rat",
    "3103": " fig",
    "3104": " dove",
    "3105": " dolph",
    "3106": " chess",
    "3107": " bees",
    "3108": " While",
    "3109": "cident",
    "3110": " stat",
    "3111": " raven",
    "3112": " leopard",
    "3113": " flash",
    "3114": " crocodile",
    "3115": " brill",
    "3116": " attic",
    "3117": "nic",
    "3118": " yarn",
    "3119": " sung",
    "3120": " shows",
    "3121": " painting",
    "3122": " press",
    "3123": " map",
    "3124": " log",
    "3125": " explained",
    "3126": " changed",
    "3127": " brilliant",
    "3128": " boys",
    "3129": "ground",
    "3130": "Their",
    "3131": "If",
    "3132": " weal",
    "3133": " thu",
    "3134": " picnic",
    "3135": " humble",
    "3136": " colour",
    "3137": " zip",
    "3138": " tricks",
    "3139": " shiver",
    "3140": " mill",
    "3141": " crawled",
    "3142": " board",
    "3143": " er",
    "3144": "nel",
    "3145": "hip",
    "3146": " using",
    "3147": " temple",
    "3148": " ignorant",
    "3149": " envelope",
    "3150": " choose",
    "3151": "weet",
    "3152": "lasses",
    "3153": "iv",
    "3154": "Me",
    "3155": "Mama",
    "3156": " sunglasses",
    "3157": " send",
    "3158": " ruined",
    "3159": " hoop",
    "3160": " friendship",
    "3161": " frame",
    "3162": " cheerful",
    "3163": " balloons",
    "3164": " avoc",
    "3165": "net",
    "3166": "met",
    "3167": "inary",
    "3168": " raft",
    "3169": " popular",
    "3170": " pepper",
    "3171": " knee",
    "3172": " folder",
    "3173": " counted",
    "3174": " built",
    "3175": " bottom",
    "3176": " batter",
    "3177": " accident",
    "3178": "most",
    "3179": "iddle",
    "3180": " waves",
    "3181": " stones",
    "3182": " spotted",
    "3183": " rose",
    "3184": " pants",
    "3185": " helmet",
    "3186": " delicate",
    "3187": " compet",
    "3188": "work",
    "3189": "ulu",
    "3190": "igator",
    "3191": "Every",
    "3192": " triangle",
    "3193": " toast",
    "3194": " sunshine",
    "3195": " spill",
    "3196": " screen",
    "3197": " kissed",
    "3198": " jack",
    "3199": " envious",
    "3200": "umpet",
    "3201": "fee",
    "3202": "ffee",
    "3203": "erable",
    "3204": " trumpet",
    "3205": " stage",
    "3206": " sighed",
    "3207": " miserable",
    "3208": " middle",
    "3209": " louder",
    "3210": " lizard",
    "3211": " cleaning",
    "3212": " careless",
    "3213": " Your",
    "3214": "ying",
    "3215": "ither",
    "3216": "Jane",
    "3217": " wander",
    "3218": " vegetables",
    "3219": " tunnel",
    "3220": " statue",
    "3221": " serious",
    "3222": " scale",
    "3223": " pigeon",
    "3224": " pow",
    "3225": " impressive",
    "3226": " harsh",
    "3227": " finger",
    "3228": " almost",
    "3229": " No",
    "3230": "seum",
    "3231": "iable",
    "3232": " sailed",
    "3233": " maze",
    "3234": " hopping",
    "3235": " bracelet",
    "3236": " borrow",
    "3237": " belt",
    "3238": " alligator",
    "3239": " Sh",
    "3240": " slipped",
    "3241": " nosy",
    "3242": " napkin",
    "3243": " museum",
    "3244": " meant",
    "3245": " guard",
    "3246": " figure",
    "3247": " earth",
    "3248": "There",
    "3249": " washed",
    "3250": " taken",
    "3251": " saus",
    "3252": " post",
    "3253": " penny",
    "3254": " compl",
    "3255": " bin",
    "3256": " attract",
    "3257": "Mum",
    "3258": " reliable",
    "3259": " rh",
    "3260": " neighbor",
    "3261": " movie",
    "3262": " jellyfish",
    "3263": " jacket",
    "3264": " hurts",
    "3265": " happiness",
    "3266": " gar",
    "3267": " coffee",
    "3268": " cries",
    "3269": " coo",
    "3270": "ctop",
    "3271": "berries",
    "3272": " ordinary",
    "3273": " knight",
    "3274": " gor",
    "3275": " filthy",
    "3276": " attractive",
    "3277": "aser",
    "3278": " wealthy",
    "3279": " shore",
    "3280": " radio",
    "3281": " ones",
    "3282": " gem",
    "3283": " cushion",
    "3284": " cam",
    "3285": "utom",
    "3286": "utomob",
    "3287": "utomobile",
    "3288": "ipper",
    "3289": " walks",
    "3290": " peach",
    "3291": " muffin",
    "3292": " magnet",
    "3293": " forward",
    "3294": " cab",
    "3295": " boxes",
    "3296": " belonged",
    "3297": "live",
    "3298": " tag",
    "3299": " shells",
    "3300": " shade",
    "3301": " poured",
    "3302": " nod",
    "3303": " locked",
    "3304": " gorilla",
    "3305": " camera",
    "3306": "zzy",
    "3307": "pack",
    "3308": "llip",
    "3309": "llipop",
    "3310": " whispered",
    "3311": " regular",
    "3312": " persist",
    "3313": " lollipop",
    "3314": " fluffy",
    "3315": " dolphin",
    "3316": " cabin",
    "3317": " boats",
    "3318": " answered",
    "3319": " automobile",
    "3320": "ony",
    "3321": "ext",
    "3322": "appy",
    "3323": " times",
    "3324": " nods",
    "3325": " giving",
    "3326": " drawer",
    "3327": " desk",
    "3328": "dom",
    "3329": " smoke",
    "3330": " sailor",
    "3331": " mule",
    "3332": " load",
    "3333": " four",
    "3334": " create",
    "3335": " competit",
    "3336": " Miss",
    "3337": "uth",
    "3338": "omes",
    "3339": "ctopus",
    "3340": "coa",
    "3341": "cles",
    "3342": " travel",
    "3343": " saying",
    "3344": " lotion",
    "3345": " judge",
    "3346": " gum",
    "3347": " chu",
    "3348": "inky",
    "3349": "ete",
    "3350": " witch",
    "3351": " twig",
    "3352": " stronger",
    "3353": " sniff",
    "3354": " shrimp",
    "3355": " delight",
    "3356": " cupboard",
    "3357": " chubby",
    "3358": " ang",
    "3359": " Today",
    "3360": " Jake",
    "3361": "und",
    "3362": "ict",
    "3363": "ging",
    "3364": "Go",
    "3365": " wool",
    "3366": " successful",
    "3367": " returned",
    "3368": " libr",
    "3369": " invited",
    "3370": " houses",
    "3371": " garage",
    "3372": " bubble",
    "3373": "urb",
    "3374": "essie",
    "3375": " support",
    "3376": " showing",
    "3377": " nicely",
    "3378": " needle",
    "3379": " mole",
    "3380": " lively",
    "3381": " lean",
    "3382": " helpless",
    "3383": "mbre",
    "3384": "Who",
    "3385": " yet",
    "3386": " umbre",
    "3387": " persistent",
    "3388": " moder",
    "3389": " helps",
    "3390": " grown",
    "3391": " fearful",
    "3392": " dough",
    "3393": " alert",
    "3394": "ief",
    "3395": "anut",
    "3396": " trunk",
    "3397": " squee",
    "3398": " solve",
    "3399": " shine",
    "3400": " scoot",
    "3401": " radish",
    "3402": " gets",
    "3403": " fridge",
    "3404": " dreams",
    "3405": " disturb",
    "3406": " club",
    "3407": "anger",
    "3408": " value",
    "3409": " sleeping",
    "3410": " octopus",
    "3411": " modern",
    "3412": " licked",
    "3413": " low",
    "3414": " decide",
    "3415": " cooked",
    "3416": " bedroom",
    "3417": " Lulu",
    "3418": "oin",
    "3419": " repe",
    "3420": " loudly",
    "3421": " creature",
    "3422": " cere",
    "3423": " carp",
    "3424": " bounced",
    "3425": "otter",
    "3426": " wishes",
    "3427": " ways",
    "3428": " uncle",
    "3429": " tire",
    "3430": " tank",
    "3431": " speed",
    "3432": " speak",
    "3433": " sort",
    "3434": " sle",
    "3435": " quar",
    "3436": " hive",
    "3437": " dive",
    "3438": " city",
    "3439": " base",
    "3440": " acce",
    "3441": " Sn",
    "3442": " otter",
    "3443": "ense",
    "3444": "azz",
    "3445": " umbrella",
    "3446": " truth",
    "3447": " thunder",
    "3448": " split",
    "3449": " learning",
    "3450": " harder",
    "3451": " hipp",
    "3452": " gym",
    "3453": " eraser",
    "3454": " candle",
    "3455": "orable",
    "3456": "Sarah",
    "3457": " station",
    "3458": " spend",
    "3459": " repair",
    "3460": " lit",
    "3461": "xy",
    "3462": "ric",
    "3463": "ilty",
    "3464": "cut",
    "3465": " order",
    "3466": " mop",
    "3467": " mild",
    "3468": " guilty",
    "3469": " father",
    "3470": " cherries",
    "3471": " chalk",
    "3472": " cereal",
    "3473": "ye",
    "3474": "ulif",
    "3475": "iron",
    "3476": "Billy",
    "3477": " wheels",
    "3478": " week",
    "3479": " vine",
    "3480": " thief",
    "3481": " quarrel",
    "3482": " pointing",
    "3483": " jewelry",
    "3484": " jet",
    "3485": " flashlight",
    "3486": " cocoa",
    "3487": " biggest",
    "3488": "tern",
    "3489": "atient",
    "3490": " soar",
    "3491": " sink",
    "3492": " knot",
    "3493": " impatient",
    "3494": " homes",
    "3495": " grace",
    "3496": " fountain",
    "3497": " caulif",
    "3498": " cact",
    "3499": " adorable",
    "3500": " True",
    "3501": " Rob",
    "3502": " ed",
    "3503": "gen",
    "3504": "asing",
    "3505": " powder",
    "3506": " library",
    "3507": " happening",
    "3508": " carpet",
    "3509": " cactus",
    "3510": " sweater",
    "3511": " stream",
    "3512": " skipped",
    "3513": " pengu",
    "3514": " office",
    "3515": " herb",
    "3516": " forth",
    "3517": " case",
    "3518": "ten",
    "3519": "keep",
    "3520": "irit",
    "3521": "arming",
    "3522": "Bobo",
    "3523": " staff",
    "3524": " shield",
    "3525": " lying",
    "3526": " half",
    "3527": " grandpa",
    "3528": " fork",
    "3529": " flute",
    "3530": " fisher",
    "3531": " Dolly",
    "3532": "rage",
    "3533": "rn",
    "3534": "ory",
    "3535": "oby",
    "3536": "ject",
    "3537": "isted",
    "3538": " whenever",
    "3539": " hippo",
    "3540": " handle",
    "3541": " grapes",
    "3542": " charming",
    "3543": "esday",
    "3544": "assion",
    "3545": " valu",
    "3546": " tripped",
    "3547": " skin",
    "3548": " feathers",
    "3549": " counting",
    "3550": " cauliflower",
    "3551": " angel",
    "3552": "zed",
    "3553": "ped",
    "3554": "levator",
    "3555": "acht",
    "3556": " ticket",
    "3557": " thinking",
    "3558": " themselves",
    "3559": " tap",
    "3560": " strawberry",
    "3561": " slept",
    "3562": " marry",
    "3563": " led",
    "3564": " knows",
    "3565": " hunt",
    "3566": " elevator",
    "3567": " design",
    "3568": " avocado",
    "3569": " Peter",
    "3570": "was",
    "3571": "washer",
    "3572": "lephone",
    "3573": "edy",
    "3574": " yacht",
    "3575": " wrapped",
    "3576": " telephone",
    "3577": " spun",
    "3578": " gifted",
    "3579": " eventually",
    "3580": " dishwasher",
    "3581": " complain",
    "3582": " competitive",
    "3583": "ellig",
    "3584": " skip",
    "3585": " shrink",
    "3586": " intellig",
    "3587": " excite",
    "3588": " iron",
    "3589": "Mummy",
    "3590": " tray",
    "3591": " towers",
    "3592": " sauce",
    "3593": " quit",
    "3594": " photo",
    "3595": " haircut",
    "3596": " gathered",
    "3597": " flea",
    "3598": " disappoin",
    "3599": " compassion",
    "3600": "rill",
    "3601": "ates",
    "3602": " wire",
    "3603": " pole",
    "3604": " poem",
    "3605": " pirate",
    "3606": " nurse",
    "3607": " giggled",
    "3608": " decorate",
    "3609": " deter",
    "3610": " anch",
    "3611": " Tweet",
    "3612": " Rose",
    "3613": "ulance",
    "3614": "opl",
    "3615": "eropl",
    "3616": "elery",
    "3617": "bulance",
    "3618": "Jim",
    "3619": " waff",
    "3620": " valuable",
    "3621": " torn",
    "3622": " toe",
    "3623": " shape",
    "3624": " restless",
    "3625": " question",
    "3626": " ham",
    "3627": " ears",
    "3628": " cricket",
    "3629": " anchor",
    "3630": " ambulance",
    "3631": " aeropl",
    "3632": "Fluffy",
    "3633": " yaw",
    "3634": " vide",
    "3635": " slides",
    "3636": " numb",
    "3637": " hotel",
    "3638": " determ",
    "3639": " buttons",
    "3640": " barrel",
    "3641": "ision",
    "3642": "ats",
    "3643": "aged",
    "3644": "ache",
    "3645": "Give",
    "3646": " stranger",
    "3647": " sett",
    "3648": " edge",
    "3649": "body",
    "3650": "ating",
    "3651": " zipper",
    "3652": " wife",
    "3653": " unlock",
    "3654": " trail",
    "3655": " tears",
    "3656": " shut",
    "3657": " sight",
    "3658": " pattern",
    "3659": " numbers",
    "3660": " meal",
    "3661": " celery",
    "3662": " bull",
    "3663": "old",
    "3664": " weigh",
    "3665": " trap",
    "3666": " spinning",
    "3667": " salt",
    "3668": " ribb",
    "3669": " pit",
    "3670": " means",
    "3671": " laughs",
    "3672": " intelligent",
    "3673": " fisherman",
    "3674": " disappointed",
    "3675": " compassionate",
    "3676": " bushes",
    "3677": " Jimmy",
    "3678": " Boun",
    "3679": "del",
    "3680": "?\".",
    "3681": " ple",
    "3682": " model",
    "3683": " comput",
    "3684": " cardboard",
    "3685": " bananas",
    "3686": "spit",
    "3687": "spital",
    "3688": "keeper",
    "3689": "iew",
    "3690": "head",
    "3691": " walls",
    "3692": " view",
    "3693": " surf",
    "3694": " soldier",
    "3695": " pear",
    "3696": " newsp",
    "3697": " mug",
    "3698": " juicy",
    "3699": " ink",
    "3700": " hospital",
    "3701": " either",
    "3702": " Toby",
    "3703": " Pete",
    "3704": " Kim",
    "3705": "quit",
    "3706": "quito",
    "3707": "ophie",
    "3708": "dest",
    "3709": " short",
    "3710": " rid",
    "3711": " oil",
    "3712": " mitten",
    "3713": " curt",
    "3714": " birdc",
    "3715": " added",
    "3716": "nam",
    "3717": "ention",
    "3718": "Mr",
    "3719": "'d",
    "3720": " succe",
    "3721": " spear",
    "3722": " silver",
    "3723": " safely",
    "3724": " prep",
    "3725": " pee",
    "3726": " pap",
    "3727": " pal",
    "3728": " nail",
    "3729": " distant",
    "3730": " curtain",
    "3731": " birdcage",
    "3732": " People",
    "3733": "ushed",
    "3734": "squito",
    "3735": "!\".",
    "3736": " spilled",
    "3737": " mosquito",
    "3738": " enc",
    "3739": " crib",
    "3740": "utes",
    "3741": "uring",
    "3742": "uper",
    "3743": "ron",
    "3744": "fa",
    "3745": "aving",
    "3746": " yogurt",
    "3747": " wiped",
    "3748": " tummy",
    "3749": " task",
    "3750": " rode",
    "3751": " questions",
    "3752": " playground",
    "3753": " painter",
    "3754": " pale",
    "3755": " purse",
    "3756": " lights",
    "3757": " label",
    "3758": " dreamed",
    "3759": " costume",
    "3760": " coins",
    "3761": " cob",
    "3762": " bikes",
    "3763": " bump",
    "3764": " Buzz",
    "3765": "par",
    "3766": " succeed",
    "3767": " spirit",
    "3768": " shocked",
    "3769": " rubber",
    "3770": " pretending",
    "3771": " motorcy",
    "3772": " minutes",
    "3773": " graceful",
    "3774": " glove",
    "3775": " aeroplane",
    "3776": " OK",
    "3777": "urch",
    "3778": "opter",
    "3779": "ocer",
    "3780": "inocer",
    "3781": "icopter",
    "3782": "ately",
    "3783": "ait",
    "3784": ",”",
    "3785": " stack",
    "3786": " sausage",
    "3787": " prov",
    "3788": " palace",
    "3789": " por",
    "3790": " itself",
    "3791": " helicopter",
    "3792": " falls",
    "3793": " dust",
    "3794": " computer",
    "3795": " collar",
    "3796": " coal",
    "3797": " chain",
    "3798": " Little",
    "3799": "uel",
    "3800": "stal",
    "3801": "riger",
    "3802": "rigerator",
    "3803": "nament",
    "3804": "inoceros",
    "3805": " scooter",
    "3806": " pun",
    "3807": " ornament",
    "3808": " knob",
    "3809": " kindness",
    "3810": " crystal",
    "3811": "ucet",
    "3812": " steps",
    "3813": " rod",
    "3814": " parade",
    "3815": " packed",
    "3816": " oak",
    "3817": " melt",
    "3818": " lime",
    "3819": " golf",
    "3820": " gear",
    "3821": " faucet",
    "3822": " ax",
    "3823": " Teddy",
    "3824": "umbled",
    "3825": " vend",
    "3826": " those",
    "3827": " refrigerator",
    "3828": " newspaper",
    "3829": " modest",
    "3830": " lie",
    "3831": " leash",
    "3832": " hour",
    "3833": " eye",
    "3834": " baseball",
    "3835": " Everywhere",
    "3836": "ugged",
    "3837": "rework",
    "3838": "levision",
    "3839": "ilot",
    "3840": "cing",
    "3841": "Is",
    "3842": " separ",
    "3843": " super",
    "3844": " rhinoceros",
    "3845": " picking",
    "3846": " matt",
    "3847": " makeup",
    "3848": " lic",
    "3849": " hate",
    "3850": " firework",
    "3851": " fog",
    "3852": " driving",
    "3853": " disappeared",
    "3854": " complet",
    "3855": " cable",
    "3856": " brothers",
    "3857": " avail",
    "3858": " Bill",
    "3859": "stri",
    "3860": "ampoo",
    "3861": " video",
    "3862": " television",
    "3863": " swinging",
    "3864": " sofa",
    "3865": " serve",
    "3866": " resc",
    "3867": " pine",
    "3868": " onion",
    "3869": " often",
    "3870": " novel",
    "3871": " license",
    "3872": " inse",
    "3873": " Spike",
    "3874": " Give",
    "3875": "time",
    "3876": "roph",
    "3877": "aked",
    "3878": "Well",
    "3879": " spell",
    "3880": " rubbed",
    "3881": " polish",
    "3882": " medal",
    "3883": " managed",
    "3884": " math",
    "3885": " hall",
    "3886": " hook",
    "3887": " determined",
    "3888": " cups",
    "3889": " church",
    "3890": " axe",
    "3891": " available",
    "3892": " Cl",
    "3893": " Birdy",
    "3894": "web",
    "3895": "rophone",
    "3896": " taller",
    "3897": " sparkly",
    "3898": " screw",
    "3899": " porch",
    "3900": " missile",
    "3901": " meadow",
    "3902": " drawings",
    "3903": " disappear",
    "3904": " cooler",
    "3905": " cobweb",
    "3906": " bags",
    "3907": " alarm",
    "3908": " Mum",
    "3909": " Fo",
    "3910": " Bet",
    "3911": "stairs",
    "3912": "htub",
    "3913": "drobe",
    "3914": "ckey",
    "3915": "arry",
    "3916": " wardrobe",
    "3917": " vendor",
    "3918": " stared",
    "3919": " penguin",
    "3920": " metal",
    "3921": " hockey",
    "3922": " growl",
    "3923": " diary",
    "3924": " climbing",
    "3925": " bookshe",
    "3926": " bathtub",
    "3927": " basketball",
    "3928": " bandage",
    "3929": " ig",
    "3930": "usia",
    "3931": "ready",
    "3932": "loo",
    "3933": "husia",
    "3934": "erc",
    "3935": "Bye",
    "3936": " veil",
    "3937": " thread",
    "3938": " rolling",
    "3939": " rice",
    "3940": " ostri",
    "3941": " miner",
    "3942": " meat",
    "3943": " may",
    "3944": " igloo",
    "3945": " hurry",
    "3946": " gasped",
    "3947": " enthusia",
    "3948": " cherry",
    "3949": " bookshelf",
    "3950": " battery",
    "3951": " already",
    "3952": " Johnny",
    "3953": "omed",
    "3954": "Wait",
    "3955": "Re",
    "3956": " swung",
    "3957": " stud",
    "3958": " stretched",
    "3959": " root",
    "3960": " rise",
    "3961": " papers",
    "3962": " organize",
    "3963": " magaz",
    "3964": " knock",
    "3965": " itch",
    "3966": " insect",
    "3967": " hunter",
    "3968": " grape",
    "3969": " explain",
    "3970": " comet",
    "3971": " Snow",
    "3972": " Pipp",
    "3973": "verse",
    "3974": "istol",
    "3975": "affe",
    "3976": "See",
    "3977": "Al",
    "3978": " object",
    "3979": " ok",
    "3980": " notice",
    "3981": " motorcycle",
    "3982": " microphone",
    "3983": " mattress",
    "3984": " mummy",
    "3985": " lumber",
    "3986": " bicy",
    "3987": "ricane",
    "3988": "nger",
    "3989": " snap",
    "3990": " realised",
    "3991": " reward",
    "3992": " pistol",
    "3993": " pilot",
    "3994": " mustache",
    "3995": " impro",
    "3996": " flame",
    "3997": " exerc",
    "3998": " encou",
    "3999": " dreaming",
    "4000": " dess",
    "4001": " cooking",
    "4002": " arg",
    "4003": "ometer",
    "4004": "lcan",
    "4005": "asp",
    "4006": "aul",
    "4007": "Gra",
    "4008": " winter",
    "4009": " wallet",
    "4010": " volcan",
    "4011": " unpack",
    "4012": " troph",
    "4013": " suggest",
    "4014": " sheet",
    "4015": " jokes",
    "4016": " flour",
    "4017": " fought",
    "4018": " blackboard",
    "4019": " Zoomy",
    "4020": "rmometer",
    "4021": "lter",
    "4022": "ipe",
    "4023": "iano",
    "4024": "aches",
    "4025": " peanut",
    "4026": " pastry",
    "4027": " network",
    "4028": " falling",
    "4029": " buckle",
    "4030": " blin",
    "4031": " bicycle",
    "4032": " Lee",
    "4033": "aid",
    "4034": "Ouch",
    "4035": " volcano",
    "4036": " vi",
    "4037": " trucks",
    "4038": " trophy",
    "4039": " sunset",
    "4040": " shampoo",
    "4041": " rake",
    "4042": " calling",
    "4043": " camp",
    "4044": " bent",
    "4045": "aky",
    "4046": " weep",
    "4047": " stom",
    "4048": " pressed",
    "4049": " practice",
    "4050": " piano",
    "4051": " ostrich",
    "4052": " neat",
    "4053": " drain",
    "4054": " beef",
    "4055": " attach",
    "4056": " Pandy",
    "4057": "ured",
    "4058": "lies",
    "4059": "aspoon",
    "4060": "angu",
    "4061": " trains",
    "4062": " teaspoon",
    "4063": " sweetie",
    "4064": " stable",
    "4065": " shelter",
    "4066": " poke",
    "4067": " package",
    "4068": " mem",
    "4069": " human",
    "4070": " hours",
    "4071": " hanging",
    "4072": " hammer",
    "4073": " bury",
    "4074": " apron",
    "4075": "ummer",
    "4076": "bol",
    "4077": "aroo",
    "4078": "angaroo",
    "4079": " track",
    "4080": " squirrels",
    "4081": " sne",
    "4082": " sym",
    "4083": " rag",
    "4084": " patch",
    "4085": " offered",
    "4086": " message",
    "4087": " marched",
    "4088": " kangaroo",
    "4089": " ins",
    "4090": " hut",
    "4091": " enjoying",
    "4092": " discovered",
    "4093": " crane",
    "4094": " blouse",
    "4095": " against",
    "4096": " ow",
    "4097": "zag",
    "4098": "ube",
    "4099": "play",
    "4100": "igzag",
    "4101": "ctory",
    "4102": " ur",
    "4103": " tube",
    "4104": " symbol",
    "4105": " skull",
    "4106": " skirt",
    "4107": " prunes",
    "4108": " passport",
    "4109": " magazine",
    "4110": " lend",
    "4111": " langu",
    "4112": " factory",
    "4113": " early",
    "4114": " display",
    "4115": " Jo",
    "4116": "ature",
    "4117": " stairs",
    "4118": " shovel",
    "4119": " prevent",
    "4120": " peeked",
    "4121": " nation",
    "4122": " holds",
    "4123": " frogs",
    "4124": " fingers",
    "4125": " fuel",
    "4126": " excitement",
    "4127": " Fro",
    "4128": "stic",
    "4129": "Little",
    "4130": " univer",
    "4131": " ten",
    "4132": " son",
    "4133": " rot",
    "4134": " perm",
    "4135": " once",
    "4136": " lip",
    "4137": " journal",
    "4138": " enthusiastic",
    "4139": " dessert",
    "4140": " check",
    "4141": " castles",
    "4142": " cell",
    "4143": " bathe",
    "4144": " accidentally",
    "4145": " Zip",
    "4146": " Look",
    "4147": " Bessie",
    "4148": "leton",
    "4149": "keleton",
    "4150": " yoga",
    "4151": " theater",
    "4152": " popped",
    "4153": " opens",
    "4154": " oy",
    "4155": " kne",
    "4156": " junk",
    "4157": " happier",
    "4158": " freez",
    "4159": " football",
    "4160": " cube",
    "4161": " Dan",
    "4162": "ium",
    "4163": "ience",
    "4164": "ffic",
    "4165": " zoomed",
    "4166": " thermometer",
    "4167": " telling",
    "4168": " shaking",
    "4169": " skeleton",
    "4170": " reading",
    "4171": " pipe",
    "4172": " matches",
    "4173": " loop",
    "4174": " hedge",
    "4175": " growing",
    "4176": " five",
    "4177": " cord",
    "4178": " bathrobe",
    "4179": " allowed",
    "4180": " Here",
    "4181": " Buzzy",
    "4182": "xygen",
    "4183": "ination",
    "4184": "come",
    "4185": "azor",
    "4186": " slipp",
    "4187": " restore",
    "4188": " fastest",
    "4189": " distance",
    "4190": " disag",
    "4191": " �",
    "4192": "ney",
    "4193": "ionary",
    "4194": "ines",
    "4195": "ictionary",
    "4196": " stumbled",
    "4197": " pinch",
    "4198": " listening",
    "4199": " hanger",
    "4200": "hero",
    "4201": "case",
    "4202": " viol",
    "4203": " superhero",
    "4204": " stirred",
    "4205": " ribbon",
    "4206": " planet",
    "4207": " peek",
    "4208": " goal",
    "4209": " film",
    "4210": " dictionary",
    "4211": " admire",
    "4212": " ahead",
    "4213": "fast",
    "4214": "Sh",
    "4215": "Joe",
    "4216": " violin",
    "4217": " trash",
    "4218": " toile",
    "4219": " surprises",
    "4220": " stickers",
    "4221": " reverse",
    "4222": " helper",
    "4223": " gaz",
    "4224": " complete",
    "4225": " chose",
    "4226": " brick",
    "4227": " alive",
    "4228": " Tina",
    "4229": " Mummy",
    "4230": "astic",
    "4231": "arian",
    "4232": " strugg",
    "4233": " stops",
    "4234": " sub",
    "4235": " poppy",
    "4236": " pony",
    "4237": " jumps",
    "4238": " chasing",
    "4239": "undry",
    "4240": "place",
    "4241": "iest",
    "4242": "cu",
    "4243": "apon",
    "4244": "Jill",
    "4245": " respectful",
    "4246": " rail",
    "4247": " mineral",
    "4248": " laundry",
    "4249": " freezer",
    "4250": " doesn",
    "4251": " circles",
    "4252": " cudd",
    "4253": " breakfast",
    "4254": " blinked",
    "4255": " bill",
    "4256": " accept",
    "4257": " Ellie",
    "4258": "stiv",
    "4259": "stival",
    "4260": "render",
    "4261": "lid",
    "4262": "chan",
    "4263": " vest",
    "4264": " toilet",
    "4265": " tooth",
    "4266": " switch",
    "4267": " strip",
    "4268": " summer",
    "4269": " refused",
    "4270": " player",
    "4271": " leaving",
    "4272": " laser",
    "4273": " hurricane",
    "4274": " grill",
    "4275": " festival",
    "4276": " exercise",
    "4277": " beet",
    "4278": "liday",
    "4279": "adium",
    "4280": " waffle",
    "4281": " stadium",
    "4282": " lions",
    "4283": " leak",
    "4284": " language",
    "4285": " holiday",
    "4286": " fireplace",
    "4287": " doors",
    "4288": " cabinet",
    "4289": " Mrs",
    "4290": "htray",
    "4291": "Did",
    "4292": " twir",
    "4293": " spoke",
    "4294": " sniffed",
    "4295": " sneeze",
    "4296": " searching",
    "4297": " rules",
    "4298": " pleased",
    "4299": " monkeys",
    "4300": " mint",
    "4301": " meowed",
    "4302": " men",
    "4303": " berry",
    "4304": " airport",
    "4305": " Zoom",
    "4306": " Elly",
    "4307": "wards",
    "4308": "med",
    "4309": "iches",
    "4310": "Ow",
    "4311": "Em",
    "4312": " traffic",
    "4313": " tightly",
    "4314": " tip",
    "4315": " slap",
    "4316": " sandwiches",
    "4317": " roared",
    "4318": " razor",
    "4319": " oats",
    "4320": " lemons",
    "4321": " lawn",
    "4322": " forgave",
    "4323": " favour",
    "4324": " comfort",
    "4325": " Betty",
    "4326": "ki",
    "4327": "ince",
    "4328": "imney",
    "4329": "iggly",
    "4330": "chanic",
    "4331": " windows",
    "4332": " stomach",
    "4333": " sticker",
    "4334": " slip",
    "4335": " separate",
    "4336": " sent",
    "4337": " plastic",
    "4338": " pair",
    "4339": " obser",
    "4340": " nature",
    "4341": " meeting",
    "4342": " mechanic",
    "4343": " finds",
    "4344": " favourite",
    "4345": " chimney",
    "4346": " caring",
    "4347": " cur",
    "4348": " boots",
    "4349": " ashtray",
    "4350": " anyway",
    "4351": " agree",
    "4352": " Or",
    "4353": " Mar",
    "4354": "sses",
    "4355": "ement",
    "4356": " unite",
    "4357": " tomatoes",
    "4358": " resist",
    "4359": " mixer",
    "4360": " lightning",
    "4361": " grabs",
    "4362": " ener",
    "4363": " cows",
    "4364": " breat",
    "4365": " blueberry",
    "4366": " beetle",
    "4367": " barking",
    "4368": " Jazz",
    "4369": "year",
    "4370": "hic",
    "4371": " vehic",
    "4372": " subway",
    "4373": " sport",
    "4374": " point",
    "4375": " poked",
    "4376": " minute",
    "4377": " letters",
    "4378": " imagine",
    "4379": " holes",
    "4380": " giraffe",
    "4381": " classroom",
    "4382": " cards",
    "4383": " belongs",
    "4384": " Are",
    "4385": " Y",
    "4386": "night",
    "4387": "la",
    "4388": "hter",
    "4389": "book",
    "4390": "ayak",
    "4391": "amber",
    "4392": " remove",
    "4393": " oyster",
    "4394": " notebook",
    "4395": " mistakes",
    "4396": " laughter",
    "4397": " kayak",
    "4398": " invite",
    "4399": " flood",
    "4400": " billboard",
    "4401": " Sophie",
    "4402": " Pippin",
    "4403": " Bounce",
    "4404": " Big",
    "4405": "te",
    "4406": "apa",
    "4407": " yield",
    "4408": " remain",
    "4409": " rac",
    "4410": " puddles",
    "4411": " oxygen",
    "4412": " names",
    "4413": " musician",
    "4414": " leaned",
    "4415": " improve",
    "4416": " handed",
    "4417": " country",
    "4418": " cartoon",
    "4419": " Alice",
    "4420": "chair",
    "4421": "cast",
    "4422": "Jimmy",
    "4423": " whip",
    "4424": " warned",
    "4425": " warn",
    "4426": " swamp",
    "4427": " spoil",
    "4428": " sandcast",
    "4429": " sudden",
    "4430": " size",
    "4431": " proudly",
    "4432": " problems",
    "4433": " glowing",
    "4434": " courage",
    "4435": " chamber",
    "4436": " bookcase",
    "4437": " Sandy",
    "4438": "vice",
    "4439": "ola",
    "4440": "lend",
    "4441": "inarian",
    "4442": "igi",
    "4443": "eterinarian",
    "4444": "eb",
    "4445": " wipe",
    "4446": " wine",
    "4447": " strawberries",
    "4448": " sadly",
    "4449": " pushes",
    "4450": " pulls",
    "4451": " lawy",
    "4452": " dancer",
    "4453": " beep",
    "4454": " above",
    "4455": " Ru",
    "4456": "ison",
    "4457": " trade",
    "4458": " surrender",
    "4459": " soil",
    "4460": " slippery",
    "4461": " sandbox",
    "4462": " rescue",
    "4463": " panic",
    "4464": " pages",
    "4465": " navy",
    "4466": " frowned",
    "4467": " fre",
    "4468": " copper",
    "4469": " cliff",
    "4470": " ceiling",
    "4471": " butterflies",
    "4472": " appl",
    "4473": " Co",
    "4474": "usie",
    "4475": "rod",
    "4476": "emember",
    "4477": "coli",
    "4478": "ccoli",
    "4479": " veterinarian",
    "4480": " tease",
    "4481": " rece",
    "4482": " planes",
    "4483": " page",
    "4484": " kneel",
    "4485": " kinds",
    "4486": " incre",
    "4487": " fort",
    "4488": " feelings",
    "4489": " carrying",
    "4490": " armchair",
    "4491": " art",
    "4492": " Polly",
    "4493": " Ow",
    "4494": " x",
    "4495": "gie",
    "4496": "ecause",
    "4497": "ebra",
    "4498": "aud",
    "4499": " weapon",
    "4500": " stair",
    "4501": " repeat",
    "4502": " provide",
    "4503": " introd",
    "4504": " ignore",
    "4505": " energy",
    "4506": " delay",
    "4507": " brightly",
    "4508": " believed",
    "4509": "scope",
    "4510": "roscope",
    "4511": "nesday",
    "4512": "lendar",
    "4513": "lu",
    "4514": "ednesday",
    "4515": "cer",
    "4516": "anda",
    "4517": " waste",
    "4518": " tools",
    "4519": " somewhere",
    "4520": " shakes",
    "4521": " regret",
    "4522": " prayed",
    "4523": " ped",
    "4524": " mailman",
    "4525": " lid",
    "4526": " heat",
    "4527": " calendar",
    "4528": " Paul",
    "4529": "olog",
    "4530": "low",
    "4531": "imed",
    "4532": " zebra",
    "4533": " sounded",
    "4534": " sandcastle",
    "4535": " saving",
    "4536": " reminded",
    "4537": " older",
    "4538": " nobody",
    "4539": " meas",
    "4540": " lives",
    "4541": " keeping",
    "4542": " apolog",
    "4543": " advice",
    "4544": " aw",
    "4545": " Where",
    "4546": " God",
    "4547": "itation",
    "4548": "elcome",
    "4549": "Your",
    "4550": " vehicle",
    "4551": " raise",
    "4552": " price",
    "4553": " mystery",
    "4554": " lawyer",
    "4555": " freeze",
    "4556": " flies",
    "4557": " ext",
    "4558": " choice",
    "4559": " cane",
    "4560": " anywhere",
    "4561": "hest",
    "4562": "eer",
    "4563": " tax",
    "4564": " suggested",
    "4565": " starts",
    "4566": " softly",
    "4567": " shouts",
    "4568": " shone",
    "4569": " rooms",
    "4570": " rushed",
    "4571": " letting",
    "4572": " inclu",
    "4573": " imagined",
    "4574": " happens",
    "4575": " dear",
    "4576": " crossed",
    "4577": " colourful",
    "4578": " chairs",
    "4579": " breaks",
    "4580": " Su",
    "4581": " Grandpa",
    "4582": "ores",
    "4583": "ogn",
    "4584": "lex",
    "4585": "aurant",
    "4586": "alley",
    "4587": "aggie",
    "4588": " taxi",
    "4589": " squeeze",
    "4590": " smells",
    "4591": " restaurant",
    "4592": " replace",
    "4593": " recogn",
    "4594": " pitch",
    "4595": " excitedly",
    "4596": " eaten",
    "4597": " chickens",
    "4598": " applaud",
    "4599": " Wiggly",
    "4600": " Papa",
    "4601": " Next",
    "4602": " Gigi",
    "4603": "orge",
    "4604": "indeer",
    "4605": "eorge",
    "4606": "apping",
    "4607": "Next",
    "4608": "Mary",
    "4609": "Mark",
    "4610": " valley",
    "4611": " trem",
    "4612": " tub",
    "4613": " steam",
    "4614": " reindeer",
    "4615": " ranch",
    "4616": " rained",
    "4617": " olive",
    "4618": " gain",
    "4619": " file",
    "4620": " content",
    "4621": " broccoli",
    "4622": " blowing",
    "4623": " Carl",
    "4624": "arlie",
    "4625": " microscope",
    "4626": " extra",
    "4627": " ended",
    "4628": " equ",
    "4629": " dishes",
    "4630": " Would",
    "4631": " Wednesday",
    "4632": " Ste",
    "4633": " V",
    "4634": "utor",
    "4635": "na",
    "4636": "ero",
    "4637": "ected",
    "4638": "Yuck",
    "4639": "Yay",
    "4640": " tornado",
    "4641": " spade",
    "4642": " sneezed",
    "4643": " reve",
    "4644": " prepare",
    "4645": " mass",
    "4646": " hung",
    "4647": " fresh",
    "4648": " event",
    "4649": " delighted",
    "4650": " dare",
    "4651": " chewed",
    "4652": " bouncing",
    "4653": " blueberries",
    "4654": " barks",
    "4655": "vet",
    "4656": "tain",
    "4657": "ggy",
    "4658": "Will",
    "4659": "Daisy",
    "4660": " tutor",
    "4661": " settle",
    "4662": " scold",
    "4663": " riding",
    "4664": " poison",
    "4665": " myself",
    "4666": " hoping",
    "4667": " heads",
    "4668": " gro",
    "4669": " chance",
    "4670": " argue",
    "4671": " Fl",
    "4672": "illie",
    "4673": "acation",
    "4674": "Ready",
    "4675": " vacation",
    "4676": " shrugged",
    "4677": " quiz",
    "4678": " opera",
    "4679": " Freddy",
    "4680": " Binky",
    "4681": "ipment",
    "4682": "cuss",
    "4683": "asis",
    "4684": "Qu",
    "4685": " weather",
    "4686": " skill",
    "4687": " shivering",
    "4688": " seas",
    "4689": " suff",
    "4690": " prints",
    "4691": " missing",
    "4692": " giggle",
    "4693": " float",
    "4694": " evening",
    "4695": " equipment",
    "4696": " enter",
    "4697": " discuss",
    "4698": " chores",
    "4699": " burned",
    "4700": " bend",
    "4701": " baking",
    "4702": " Spark",
    "4703": " End",
    "4704": "ucture",
    "4705": "noon",
    "4706": "acked",
    "4707": " thanks",
    "4708": " structure",
    "4709": " sty",
    "4710": " reveal",
    "4711": " pushing",
    "4712": " prune",
    "4713": " oasis",
    "4714": " mention",
    "4715": " invitation",
    "4716": " fixing",
    "4717": " afternoon",
    "4718": "ky",
    "4719": "inking",
    "4720": "heart",
    "4721": " yawned",
    "4722": " writing",
    "4723": " trusted",
    "4724": " throws",
    "4725": " throwing",
    "4726": " spots",
    "4727": " socks",
    "4728": " puzzles",
    "4729": " placed",
    "4730": " perfume",
    "4731": " hills",
    "4732": " grand",
    "4733": " dem",
    "4734": " bumped",
    "4735": " Under",
    "4736": " Lilly",
    "4737": "sity",
    "4738": "otten",
    "4739": "ana",
    "4740": "Ann",
    "4741": " tracks",
    "4742": " parts",
    "4743": " mall",
    "4744": " luck",
    "4745": " insisted",
    "4746": " coats",
    "4747": " captain",
    "4748": " below",
    "4749": " beans",
    "4750": " Mike",
    "4751": "queaky",
    "4752": "happy",
    "4753": "ef",
    "4754": "Ch",
    "4755": "Buddy",
    "4756": "\",",
    "4757": " sweetheart",
    "4758": " sticky",
    "4759": " shower",
    "4760": " shoulder",
    "4761": " sew",
    "4762": " sigh",
    "4763": " printed",
    "4764": " pastel",
    "4765": " following",
    "4766": " claw",
    "4767": " cared",
    "4768": " brighter",
    "4769": " Me",
    "4770": "va",
    "4771": "peedy",
    "4772": "omm",
    "4773": "ommend",
    "4774": "Not",
    "4775": "All",
    "4776": " unhappy",
    "4777": " teaching",
    "4778": " recommend",
    "4779": " punish",
    "4780": " panda",
    "4781": " impressed",
    "4782": " greedy",
    "4783": " expect",
    "4784": " Un",
    "4785": " Bow",
    "4786": "uggage",
    "4787": "look",
    "4788": "iform",
    "4789": "ations",
    "4790": " uniform",
    "4791": " exper",
    "4792": " deeper",
    "4793": " candles",
    "4794": " beg",
    "4795": " Ro",
    "4796": " Hoppy",
    "4797": " Have",
    "4798": "nce",
    "4799": "lp",
    "4800": "enry",
    "4801": "Jenny",
    "4802": "Daddy",
    "4803": "Before",
    "4804": " yucky",
    "4805": " weight",
    "4806": " tour",
    "4807": " sprayed",
    "4808": " splashing",
    "4809": " sparkled",
    "4810": " score",
    "4811": " luggage",
    "4812": " hen",
    "4813": " easily",
    "4814": " cub",
    "4815": " clapping",
    "4816": " Penny",
    "4817": " Eventually",
    "4818": " Che",
    "4819": "looking",
    "4820": "ittens",
    "4821": "arnt",
    "4822": "Surpr",
    "4823": " whisper",
    "4824": " steel",
    "4825": " sir",
    "4826": " racing",
    "4827": " lemonade",
    "4828": " learnt",
    "4829": " ignored",
    "4830": " follows",
    "4831": " destroyed",
    "4832": " checked",
    "4833": " Help",
    "4834": "urnit",
    "4835": "urniture",
    "4836": "ucked",
    "4837": "riage",
    "4838": "hood",
    "4839": "ecting",
    "4840": "cond",
    "4841": "ari",
    "4842": "anges",
    "4843": "Mimi",
    "4844": " worms",
    "4845": " wigg",
    "4846": " vanished",
    "4847": " upstairs",
    "4848": " tremble",
    "4849": " spr",
    "4850": " selling",
    "4851": " second",
    "4852": " scattered",
    "4853": " permit",
    "4854": " fro",
    "4855": " furniture",
    "4856": " cheek",
    "4857": " chirp",
    "4858": " buried",
    "4859": " Whenever",
    "4860": " Susie",
    "4861": " Olive",
    "4862": "ween",
    "4863": "uct",
    "4864": "reek",
    "4865": "iki",
    "4866": "ents",
    "4867": "Welcome",
    "4868": " whistled",
    "4869": " vroom",
    "4870": " streng",
    "4871": " sorting",
    "4872": " reef",
    "4873": " jogged",
    "4874": " jail",
    "4875": " entered",
    "4876": " demand",
    "4877": " creek",
    "4878": " between",
    "4879": " badly",
    "4880": " Snowy",
    "4881": " Is",
    "4882": "redient",
    "4883": "laimed",
    "4884": "ingredient",
    "4885": "ides",
    "4886": "ecture",
    "4887": " wre",
    "4888": " thumb",
    "4889": " supply",
    "4890": " style",
    "4891": " rush",
    "4892": " quite",
    "4893": " points",
    "4894": " paid",
    "4895": " massage",
    "4896": " marble",
    "4897": " lecture",
    "4898": " hopes",
    "4899": " exclaimed",
    "4900": " counter",
    "4901": " claws",
    "4902": " bricks",
    "4903": " Froggy",
    "4904": " ingredient",
    "4905": " \n",
    "4906": "izes",
    "4907": "Surprise",
    "4908": " strength",
    "4909": " seats",
    "4910": " scratch",
    "4911": " row",
    "4912": " petals",
    "4913": " port",
    "4914": " neighbour",
    "4915": " hurting",
    "4916": " grant",
    "4917": " cutting",
    "4918": " climbs",
    "4919": " breathe",
    "4920": " bother",
    "4921": " Squeaky",
    "4922": " Pr",
    "4923": "ges",
    "4924": "These",
    "4925": "Alice",
    "4926": " –",
    "4927": " tug",
    "4928": " shopkeeper",
    "4929": " raining",
    "4930": " putting",
    "4931": " menu",
    "4932": " marriage",
    "4933": " cakes",
    "4934": " bears",
    "4935": " allow",
    "4936": " Who",
    "4937": " Speedy",
    "4938": " Sm",
    "4939": " Mittens",
    "4940": "urther",
    "4941": "resses",
    "4942": " works",
    "4943": " wags",
    "4944": " waving",
    "4945": " starting",
    "4946": " snail",
    "4947": " printer",
    "4948": " pigs",
    "4949": " ingredients",
    "4950": " heel",
    "4951": " forgotten",
    "4952": " explored",
    "4953": " agre",
    "4954": " admired",
    "4955": " Lola",
    "4956": " Grace",
    "4957": " Alex",
    "4958": "right",
    "4959": "ecially",
    "4960": "Grandma",
    "4961": "Because",
    "4962": " wreck",
    "4963": " washing",
    "4964": " soc",
    "4965": " shined",
    "4966": " scoop",
    "4967": " sailing",
    "4968": " plates",
    "4969": " observe",
    "4970": " jogging",
    "4971": " introduce",
    "4972": " hon",
    "4973": " fallen",
    "4974": " further",
    "4975": " eagerly",
    "4976": " drops",
    "4977": " difference",
    "4978": " daisy",
    "4979": " balan",
    "4980": " apart",
    "4981": " Finn",
    "4982": "thank",
    "4983": "specially",
    "4984": "atched",
    "4985": " tuna",
    "4986": " strike",
    "4987": " soccer",
    "4988": " pup",
    "4989": " floated",
    "4990": " during",
    "4991": " blood",
    "4992": " acted",
    "4993": " Sharing",
    "4994": " Maggie",
    "4995": "reat",
    "4996": "icer",
    "4997": "eration",
    "4998": " yawn",
    "4999": "<|endoftext|>"
}